mcdonnell
zinc
u.k.
rage
baghdad
requirements
##written
places
taliban
##ios
rita
exports
carl
brown
gary
[unused803]
automatically
palm
arming
psi
grave
at
paler
harder
sport
shed
todd
transforms
customize
phoenix
stud
julia
polytechnic
##giri
disco
circulating
pisa
##re
irving
fined
pastor
dangerous
##ddin
protect
boyer
wealthy
##anda
uncertain
competitor
spectral
constituents
sole
rosemary
remake
[unused347]
##anies
musical
81
assassin
amazing
zoological
pore
intrusion
measures
zeta
situation
##cts
280
prolific
bamboo
fascist
metabolic
##camp
cooler
##sphere
cuffs
essays
implements
fish
590
kato
howl
neighbouring
pinnacle
wasting
##ape
##illa
impatiently
##gol
##man
merged
poole
##lt
jakob
##itan
artifact
reversed
##sil
calais
[unused316]
##chal
inconsistent
christchurch
astonishment
bethlehem
eurovision
insertion
[unused219]
##mation
encountered
stacked
abdul
bloc
rankings
sciences
replacing
##liffe
contests
worst
spectator
browns
rolf
beads
shame
##vor
devout
desire
nobility
boiling
hanson
[unused162]
controller
undertake
sale
sugarcane
vocabulary
[unused361]
categorizes
##kis
pilasters
##ulator
cospar
envision
button
shandong
nodded
favorably
writhing
savannah
compensation
##hor
2010
motorola
##lb
stanza
entrusted
notably
dementia
directing
vaudeville
mandated
progressive
modeling
moody
professionally
##boot
##ayton
perceive
implied
invited
325
norman
ripping
##elman
occupied
prices
[unused535]
fires
converted
tailoring
ortega
translit
coup
##torm
1761
daggers
2007
legged
##lford
comparatively
elevations
prescribing
ratified
haji
doom
##ider
deaths
revenue
##ust
staple
##lge
groves
##6th
storey
aeronautics
chairs
##ocene
[unused877]
embarrassing
##logies
[unused417]
interfere
boulders
38th
tangle
gallery
innocent
arbitrary
foam
indicted
dogg
declare
##zy
convoy
##text
predicting
originated
downstairs
##church
visual
ua
demanding
##rz
6.7.2.3
fabrica
##bread
courseware
nhs
##ui
raven
##promising
mineral
##k
anguish
mission/system
closed
surely
shoulders
refuses
sugar
assisting
australians
##fied
castle
priest
israelis
least-cost
shifters
goodness
sponsorship
serbs
950
tolerance/
screens
##gley
ortiz
pillars
tandem
sa
fog
enlisted
announcement
bundles
spores
transferring
##eche
godzilla
abby
lies
indonesian
##gpur
coding
##fp
tailor
[unused891]
[unused840]
##well
meridians
_
mob
dig
[unused74]
surfaces
##n
##amy
100
deemed
buffy
fighters
vibrations
##torium
##opsis
crusaders
guitarist
stress
zachary
[unused479]
perspective
policing
backups
khalid
##hism
dictate
overcoming
nets
dyke
hymn
nes
##yd
[unused799]
##pic
skilled
pathways
recording
rim
safety/mission-critical
wiley
vector
[unused601]
gretchen
begins
cade
sumo
##pment
##ths
competed
appreciate
##xton
zac
1953
##izzly
pie
rope
waiter
shake
naughty
department
pollock
##avi
##sen
##ss
jaguars
6.1
cold
contacts
relocating
[unused297]
##tori
##wash
bali
judgement
sensory
##wine
flee
##fl
catholicism
ville
interrupt
janeiro
longterm
tiberius
bahadur
cuba
##uru
lodges
unmistakable
##americana
backside
pi
extra
grapes
##kins
moderator
mckinley
[unused249]
##ones
normally
arrogant
propellant
haven
computer
susanna
afs
shouldn
perez
plume
today
fe
dialogues
shack
middletown
##onne
marquess
budgetary
frightening
popularized
pulling
puerto
marty
[unused651]
cabaret
##onzo
##dable
nonconforming
##mmon
annum
melody
##hre
siding
hokkaido
aerial
city
susquehanna
collaboration
prison
constabulary
leaders
999
##ceptive
fictional
##lini
panels
neon
speaker
attic
kanye
##js
practicing
forbes
foreign
lash
espana
revolt
resolutions
fellowships
should
bible
##omo
##gin
driving
2008
parental
54th
weapon
siemens
honors
1746
imposed
newscasts
fencing
station
separate
ot
seoul
neville
bully
[unused302]
motor
##hoff
floods
adi
den
sq
complex
jax
oxford
uplinked
canadian
moines
desert
galaxy
smyth
woodward
os
wellness
venice
##win
417
1699
bolton
[unused584]
done
allotted
##anus
nearing
georgian
flirt
crosby
##nna
assent
contention
jimmie
shaved
presidency
##quet
##trip
casting
##x
arranged
download
cache
descope
solicitor
##ntino
private
leads
[unused712]
banded
addict
arc
whatsoever
pulse
tattooed
masonry
repeatedly
sourced
##ridge
chick
viewer
##overs
pixels
##oulos
h
##icing
transcription
##lde
frenchman
rook
neo
##dr
jiang
empowerment
orders
culinary
mouth
commodity
aunt
##elli
windy
1745
superfamily
lifelong
profits
prescribed
protesting
raiders
demise
cultural
antigua
##right
slid
fishing
swiftly
rebranded
committees
construction
adjacent
involving
galen
prominent
spectrum
atop
cl
##nad
##table
peering
marcia
rousseau
doubt
childbirth
##day
geostationary
configurations
bulge
compensated
[unused357]
##makers
##lai
sudan
##lang
lankan
tsunami
hurling
##ara
responsible
revelations
##am
##cast
calder
stylized
pills
##ener
tricky
##nac
fenton
143
##dit
gaddafi
messy
gunn
yank
spire
courtyard
##oot
colorful
##eta
shareholder
julio
[unused905]
snarl
demanded
cus
catalogued
antennae
glistening
##lar
mar
speculation
bankers
ticked
ballad
[unused483]
##3
parallel
enforcing
demand
clark
maker
30th
wall
attending
valle
downfall
willie
recordings
##po
##sing
amid
houston
jury
completely
extremes
[unused523]
sloppy
philosophy
poorly
chief
springer
maharaja
1990s
##las
earnest
##bau
paddington
moonlight
rebirth
kowalski
move
##ysis
junk
legislation
atoll
investment
1783
prod
heller
simone
calgary
##oro
padua
are
hilda
venues
tries
##erie
alarms
##pro
aerodrome
##iver
1972
islands
county
pretending
seeks
ein
##[
##rian
murray
sao
leopold
reappeared
robyn
reply
oversight
##ir
##fan
hereditary
children
fleets
specimens
safeguard
romance
gibraltar
samba
physiology
##rmin
##ores
##iers
concentrations
1200
setup
hockey
flopped
290
prep
##air
weapons
anime
##aka
##lip
304
##ola
##gang
[unused731]
subroutine
automated
1933
[unused673]
socialists
group
##joy
cairns
bret
##ton
makeup
detrimental
##be
quoting
pete
litter
citing
impossible
##sov
honneur
##ft
eminent
leopard
leach
srd
rotation
reaper
ect
##kura
enrichment
weekends
densities
reeves
fixing
marina
##tsu
rio
##hp
outlaws
naacp
pull
[unused86]
rower
asteroid
teenager
##writer
stakehold
##ouin
butterfly
180
ravine
##rden
viscosity
appropriateness
[unused830]
narrowly
warnings
[unused682]
elm
##gall
shrine
finalists
evans
winslow
##jn
extras
preparing
drink
khorasan
##nsk
dis
adjustable
kia
##lli
emergency
darling
dutton
lille
nearer
archdeacon
##rds
touchdowns
lectured
lexi
principal
##rbin
exacerbating
walter
turbine
imitation
##stick
emery
momentarily
ferocious
grown
occasionally
requirement
runways
porto
##sho
washed
depend
##iter
beats
glossy
##zel
twenties
swan
cracking
##tyn
1941
##uche
gill
##erved
october
principally
jose
jain
##ault
wake
308
##lad
duplication
##tha
ethical
jonny
nodding
alby
soothe
ankles
adequacy
contingency
incorporate
mrb
hopper
collapses
2.3
##tok
signing
adaptive
winfield
belt
usually
periods
oldies
clerical
you
ode
pets
enact
##jos
pitcher
inflammatory
heavenly
barking
coincident
combatants
gabby
nition
bare
designs
compete
detainees
thus
patriot
organizing
bargaining
##ile
##lessly
clicks
serious
##haya
msfc
ambush
weaken
port
quality
marquis
verb
july
extravagant
instructor
vanguard
##kiewicz
robe
till
##miya
breton
united
cardiff
[unused241]
nichols
prove
polo
backlash
analogous
hides
davis
boxed
44th
inclusively
neighbor
accessing
joshi
##8
rosalie
##sett
anarchist
adversary
burundi
##fying
pavement
ensign
##ogenic
measurement
##bin
chandra
subsided
multiply
jets
molten
voiced
arrow
order
attract
sarawak
typically
budgeting
chile
habitats
##rgeon
top
busch
temperament
truce
bronze
edition
cavern
cornwall
##tie
##wig
lucrative
scholarly
informed
ward
skipping
spectators
reserve
removing
antenna
vince
bouncing
exploration
minister
destination
criteria
357
tulane
syndication
intersection
courthouse
magistrates
mic
movements
tying
leaps
skinned
cast
##als
20s
surveyed
chew
quarry
guessing
colleagues
1771
##boys
wells
##houses
##net
##ulton
##ttal
lp
asean
610
ana
sous
daughters
logic
eclipse
salvatore
vulture
enthusiasts
##ulous
buzzing
mythological
dahl
[unused631]
antipoints
hagen
hiatus
[unused441]
say
contradictory
nara
yearbook
suzuki
bicycle
poses
##basket
##ches
fitness
complicated
60th
midnight
##aca
##istle
##nagar
herr
##dgets
healy
onwards
eton
nonoperational
875
heard
frightened
##lich
express
##logie
eats
##deh
bai
gilbert
letting
yuri
##sive
##iness
[unused513]
peninsula
evicted
##endra
cantata
##isa
described
tyres
jong
saying
analyst
briefs
someone
striker
sting
packard
campaigning
rye
raja
pu
##ko
bowler
dowager
petra
conner
certifications
segregation
guzman
wrestlers
cyclone
anthem
ideally
shan
calm
annette
sound
verses
quake
classic
312
sunlight
friday
##ome
mrs
##mes
##lez
##rked
wakes
welch
je
gallant
wally
##cht
creeping
sampling
bring
camille
[unused747]
alonso
hooks
immersed
stenciled
milford
centres
##mount
sonar
austria
scuba
##enham
huntington
[unused75]
knowles
allah
##cion
##rasia
lucy
biographies
alexander
reelection
##mp
##life
remembers
##raj
textures
dependence
pendleton
##rana
1782
##neas
felicity
fishermen
spotting
nmi
mccain
executions
hopkins
##biotic
swords
approximating
ze
complexes
tyson
learning
##llis
##itung
vapor
nah
##llah
cyclopentane
resentment
paralyzed
rated
yourselves
##koff
hunts
##ador
##ural
terrific
##ool
increasing
engines
nh
fabio
rama
shelley
affinity
##zzo
empress
##plin
loan
courier
brody
evolutionary
jan
ld
descriptions
tolerate
##ych
ark
mm
improper
composed
intruder
##vinsky
uruguay
sql
unmanned
pawn
wilkins
clustered
components
##was
rasped
assassinate
android
simulcast
3.2.1.1
design-to
rd
deepest
##fa
roxy
derivatives
fantastic
##asi
hotter
magical
[unused181]
##rao
##rrado
andrea
airways
organizes
gunmen
fits
comparisons
1300
trls
costs
##ogy
smashed
harpsichord
description
behav
##rchy
obstruction
female
##sa
smartphone
roi
lunatic
uppermost
wa
carolyn
compounds
##ule
congestion
macedonia
saturn
advocating
reported
##frid
174
paterson
[unused49]
warped
[unused436]
lds
proprietor
##eni
assassination
exceptionally
specials
leaked
[unused123]
themed
site
##rate
blogger
##un
heavens
fun
1755
echo
##lving
##riam
notification
##you
ca
laureate
##ov
[unused522]
##anto
equal
bitten
disguise
##tro
##elling
settled
##wled
felony
penal
counselor
claiming
blind
###
rum
exterior
pulitzer
fiddle
zation
[unused354]
stefan
chapels
lettering
perfectly
pitching
kinda
fixtures
lights
humanity
dessert
showcased
always
parana
vogel
[unused978]
allocations
stout
controversy
motif
downtime
sleeper
double
council
variations
calibrated
wins
##lick
ions
kilometres
apprenticeship
utterly
boston
describing
##cula
requiring
nfl
bad
tradition
nrc
jimi
cunning
stage
wagon
##yla
instant
[unused468]
flu
##aldo
detect
secretive
video
[unused50]
buddy
troubled
bypassed
oval
railroad
dub
thai
strata
##m
got
comprehension
increased
cleanup
solicitations
##ng
misconception
emperor
ellen
collector
haze
2d
submerged
fluent
649b
constance
ucts
semiconductor
newell
weave
specifics
##ava
orchard
lyon
saber
panted
transylvania
nehru
elementary
grenades
elastic
operated
reinforcements
##lier
fireplace
runner
resisting
beale
profiles
##atin
clutching
basic
employs
##zhou
townsend
339
##yse
internationals
lina
401
nerves
mistaken
bilateral
lest
##gging
rescuing
cv
dominant
garry
karlsruhe
oneself
rowland
policeman
##oj
[unused493]
u.s.
alice
tooling
assumption
##ode
sells
underwater
occupies
simeon
earls
mentioning
##tangled
hughes
noticeable
spaceflight
catalan
drowning
texts
improtant
certified
loco
animals
ridm
bertha
streaming
column
mariana
mistakenly
class
strengthening
manner
tops
##xes
bryan
stella
avizienis
afraid
albany
icelandic
demonstrates
marianne
tu
aggressive
allen
average
wished
refusal
[unused144]
disciple
inclinations
argue
secular
earrings
galileo
lagos
bea
conceptual
riding
admiralty
sm
restless
##mg
##stic
dad
lil
konstantin
curls
[unused431]
mentions
ccb
uci
eyre
demonic
internal
om
behavioral
amiga
##redo
zeus
post-flight
leisure
dubai
margot
hadn
jamaican
tapping
420
colleen
##igh
headed
##igate
filmmaker
flip
forehead
199
faux
ingredient
##lo
rec
important
pulled
administered
##iza
##zoo
fied
shooter
##ovsky
##ulation
geologic
##hara
answers
admiring
inscriptions
nm
##kulam
debut
reusing
mental
##rave
spelled
##key
sore
##cin
do
slide
resemble
administering
warden
eyeing
##arat
turnout
holidays
dose
scrolls
##udence
plc
prussia
##ache
finances
selects
##gle
readers
shoving
##estinal
jewelry
##hoot
midportions
mining
sergeant
##wright
assigning
contingent
##isto
hamlets
examined
walkover
heroine
swansea
##36
switches
moves
dso
clancy
fiancee
volcano
whispers
##piece
briefing
queen
worsened
beheaded
uniform
jerry
petersen
[unused287]
plump
global
henrietta
victims
framework
meteoroid
underway
[unused519]
closure
##ures
referees
tolerances
roberto
difficulties
threatens
performing
50
##pool
introductions
309
mimi
mechanisms
meadow
salman
emphasized
colloquially
coral
newspapers
canine
1775
reach
mgm
stems
dockyard
mastery
grinning
##uga
lad
yeomanry
ebook
##naut
receptor
##yx
greg
##hia
##dder
reentry
proj
deprivation
volunteer
4.2
mira
reckless
warning
assassinated
shark
##rogated
:
[unused541]
spontaneously
inappropriate
roasted
avail
hue
gregg
alberta
##isson
vial
mattress
##eg
violent
poetry
##group
roger
ensures
greyhound
archway
edward
adapt
mess
humour
germain
[unused429]
##uming
##ately
bandits
pitch
##mill
idaho
pretended
##v
initialization
nouveau
cambridge
tune
sitcom
forearms
with
alla
proctor
beginning
attacked
##llary
summarized
confesses
ai
ads
[unused140]
headline
horace
folks
bitterness
sparkling
bubble
##cala
achilles
regal
achieved
chico
[unused951]
gates
##chs
driven
##gent
[unused224]
##esthesia
stuart
6.6
woke
competing
alex
rebelled
lavender
1704
territory
charged
##hell
fixes
dust
##zier
gregory
##lem
ordeal
polynomials
[unused11]
vulcan
affair
evaluations
[unused516]
calf
stimulates
sixties
##eira
comprises
bmw
dm
fiscal
##ye
raced
marcus
searched
accessibility
dismantled
sal
11
faction
##59
##olo
transaction
jill
intellect
##64
resided
archives
backdrop
coaching
credit
stationed
208
[unused324]
risked
optimal
compressed
##7
domingo
[unused539]
1649
alterations
cooperative
states
##cis
papers
aegean
fulfills
cameo
grouping
pmc
mandate
leukemia
longer
microgravity
[unused461]
reviewer
identifier
##yuan
glittering
sprayed
bharatiya
kaitlyn
reevaluated
talking
berman
mesa
stick
pursuant
relax
ceo
pumpkin
nonconformance
friendship
lust
francois
float
aero
carol
unofficially
maui
[unused816]
[unused761]
recipe
focal
engineered
punjabi
ply
crate
extreme
139
partitioning
trigger
diseases
franchises
mosaic
##uder
pep
sonia
jeans
rats
enhancing
lithuanian
derbyshire
migration
pants
granite
middlesex
hike
[unused505]
560
##mani
c1
nietzsche
[unused148]
stu
##brand
elaboration
election
ina
infringement
armory
much
##cu
oclc
[unused228]
[unused879]
clear
restarted
cuts
bibliography
leverage
toby
##wen
distress
parkinson
turning
owes
worth
true
detention
momentary
[unused946]
wai
reciprocal
salon
viable
##riety
[unused130]
flood
shifts
spectacle
requesting
adolescence
potable
short
rat
deities
collapsed
##rie
##walk
1628
immediate
hanged
thoughtfully
1794
##imov
channel
soared
arbor
discoverers
sexual
##id
tournament
intending
brighton
sharp
##sibility
trash
modes
##path
prosecution
cognizance
rallies
gerais
alleviate
rus
[unused364]
##vington
christie
ascended
enriched
discuss
napoleon
benefited
backwards
##wark
bumper
computational
slung
[unused822]
logistic
woven
##feld
util
maintaining
concord
##ards
barbarians
bits
04
respectively
smile
albania
##se
caribbean
##vik
liv
enveloped
ssr
pistol
##cier
arte
variance
quantities
roots
related
tension
reporters
[unused981]
goodbye
##champ
reggae
emerge
jang
connecting
cyprus
atrium
reintroduced
##em
galleries
nylon
singh
##eric
uneven
##llum
moaned
dormitory
hostess
reassuring
spelling
nen.nasa.gov
universities
antagonist
es
enlarged
unesco
##tangle
philanthropic
##pel
##sau
witch
functionality
panama
insects
institution
kun
income
leaf
theorem
weiss
goldberg
isolated
historia
parapet
mapping
decentralized
##ilis
[unused405]
robin
lgbt
blend
##rdon
##sy
improve
respectable
thereafter
##al
immortality
heirs
##ots
##cheon
lending
stack
oriental
rooney
iqbal
collection
##erence
[unused336]
selected
##bf
integers
1984
oder
affirmed
autopsy
wwii
inexpensive
headlining
revise
negro
budapest
##sworth
bosch
runtime
limousine
exhibiting
##val
hall
rodgers
bt
##ual
defining
saves
##ffey
controlling
##ala
gunter
bn
##iance
##tics
distributions
automobile
committing
apparel
##bus
rewarded
##tam
triple
##cratic
[unused776]
matches
nursing
strongest
salem
shallow
grounded
unmarried
orgasm
[unused911]
##rre
iced
babies
fleming
aid
treats
cheltenham
##kim
japan
stimulus
lcc
outspoken
project
dar
3rd
month
[unused214]
affection
informal
[unused618]
lange
flowering
apt
barns
marissa
##@
tudor
humanities
blair
8th
incremental
##ju
chong
semester
alabama
bottle
tended
mei
##tsky
[unused807]
1978
relinquished
ments
chronological
135
##rk
##water
constantly
##enstein
sophomore
umm
blocking
##]
##ologists
broad
consider
acclaim
##hi
hauled
valves
runes
##%
solutions
##nett
esteem
happening
passes
auto
oversee
etat
ferrer
masters
palette
##ako
sul
1850s
afternoon
tunnel
iain
terrestrial
##esa
viking
hartman
leinster
transfers
##folk
morocco
barbados
overthrow
exhaled
##rance
##on
850
subterranean
carlo
ecuador
kahn
dharma
##ulating
barn
esti
cindy
homage
35,790
billie
outlaw
jumping
##ffled
decks
capital
acre
absent
bolt
##cic
filtering
rica
barely
festivals
simplest
[unused434]
fitzgerald
1917
##eka
kidnap
centre
organizers
trumpet
fortress
lesson
surveys
unpaid
sermons
mushrooms
astrodynamics
seventeenth
avenue
revisit
references
representing
2006
rate
calvert
##lington
influx
optimality
131
donnie
[unused985]
leary
cambrian
accidentally
listening
comte
humorous
encouragement
elector
mca
pitches
points
giggling
varying
layla
preloaded
queer
corps
overtook
living
dominating
layne
emilio
##ress
qualify
none
alexei
turbulent
therese
pussy
dissatisfied
philology
after
contradiction
brushed
ruling
bhutan
validating
##hat
##yon
##lani
##strel
award
mlb
oregon
##gnant
isaiah
joints
acronyms
344
elderly
ethnic
##inus
pioneered
##oman
relocate
sub
kappa
well
wingspan
effected
circumstance
##guide
yusuf
sirius
conversions
emmanuel
##nging
diabetes
##nti
flexures
crisis
armoured
##tery
yan
modern
airbus
[unused26]
bari
algebra
journalists
##lton
arrests
blanco
pomerania
investigations
conceived
wedding
ample
1718
##oton
tolerance
tangled
neutron
##hot
##sle
51st
traveling
##tm
[unused416]
##iu
##holder
brace
integrated
rico
coverage
[unused155]
biologist
fights
collaborate
seventy
poles
commemorate
drafted
trinidad
metabolism
approve
[unused68]
sysml
manufactures
certify
monty
2013
danes
##low
grows
suggest
##sta
shifting
[unused573]
##shah
##ignment
punishments
correlated
munchen
crewed
jem
expands
degraded
successor
champion
##du
poster
kellogg
##qu
keith
saint
shielding
patronage
counseling
clinched
lenses
western
fresno
goes
reluctantly
chanting
##ber
spitfire
midst
augustus
bird
302
upper-layer
succession
stafford
glider
prevailed
ed
##teacher
##lma
appendices
areas
sailor
##jas
cruiser
roach
friedman
producibility
##sant
##nos
interpretations
##leigh
ussr
modified
dynamic
##nh
stretching
lungs
mojo
hawthorne
[unused817]
windsor
##leton
faculty
capitol
##ified
naturally
cone
occupying
stipulated
lyric
gymnastics
ding
##gible
fleeing
ligand
buena
aadl
captures
maddie
influenza
acts
kathy
sentimental
embroidery
sanchez
audition
weeds
stimuli
rover
lulu
colon
langley
hoped
laboratories
labrador
##mism
000
riverside
indefinite
trainers
##ula
cunningham
##eda
##dora
milano
xinjiang
ho
bestowed
bk
observations
##made
dewey
pinched
ashamed
skyscraper
4.1
[unused454]
taekwondo
05
completion
italian
hardwood
military
arms
tobago
procedures
02
##grin
##yed
##pas
landmarks
imagery
genuinely
cyrus
prodigy
bohemia
shaky
comb
##rys
turtle
unsuccessfully
photographer
driveway
kramer
prussian
genetic
ala
##ghton
monsoon
##tl
dia
capable
waking
##star
##orno
podium
##ncia
suns
[unused543]
dining
migrating
submitted
scramble
death
vendor
345
##bala
hilary
nails
ethel
##hearted
dimitri
[unused458]
cartwright
influence
orchestras
snyder
spite
##ien
dexter
##ulia
discharge
dude
efforts
onion
##duction
##hab
works
granted
stripped
abuses
milton
shattering
1570
1850
##nched
exceptions
raised
dramatically
2012
dresses
andover
[unused445]
innovation
freight
prioritizing
wit
##enas
1797
paired
##gged
relaxing
balloons
greens
diverse
mel
##ely
benin
rochester
algae
cards
arteries
among
aachen
fi
dissemination
cigarettes
weekday
dupont
sea
render
lick
launched
wadi
##furt
vitamin
citizens
changed
clouded
betrayed
lineman
summons
define
understand
embrace
shells
healed
harrington
slight
[unused967]
hurrying
##cular
annie
sant
381
boilers
1560
bushing
##wicz
jillian
dation
critic
loading
hiring
edmund
##boards
examiner
ithaca
##raus
risking
##udge
snapped
[unused823]
assembles
##bio
hassan
trade
##da
catherine
385
##bles
inaugurated
wartime
recover
intimate
##grating
[unused802]
cupboard
pondered
trajectories
##est
##urrent
8,000
##aba
[unused395]
quentin
shang
ruler
crowd
bus
##lr
saxophonist
guyana
burt
hare
engineering-based
##rba
##sb
adept
seine
skin
americans
persuade
sunk
barbecues
vic
142
diagnosis
folding
character
spaces
invoking
irritated
##berger
resignation
relatives
install
##olis
##ini
a1
newmarket
1877
aggregation
ducks
christopher
luzon
hogan
ethernet
latham
armenia
periodical
plating
oven
chuck
cambodian
,
drastically
thoughtful
moreno
##pta
alexa
[unused400]
##ulata
personalities
red
aqua
bromley
dl
util.
effectiveness
rodriguez
abstracts
rendezvous
receipts
seem
liberation
aggressively
andrey
hammersmith
unaffected
##aki
squeeze
ernie
[unused692]
##rangle
electrical
highs
##era
jews
rhythms
guessed
meredith
conveniently
minh
cassette
kinetic
conscious
creations
ponytail
nations
philanthropist
rectangular
kilkenny
28
##gn
[unused639]
interned
tang
plantations
strategies
version
antarctic
transported
1500
clearing
flemish
penultimate
jeff
##inatory
overreliance
voters
bit
tho
reminds
##yala
etymology
remarkably
requests
rarely
mri
[unused724]
formalities
[unused788]
146
maiden
stabilize
arcs
cleaned
judah
jena
lambert
hoax
saw
##cle
lowering
vh1
ellipse
deterministic
origins
kat
##more
baptiste
seaside
##ace
##itated
courtroom
canoe
gupta
##cial
##cycle
aside
rumbled
redistribution
regents
##face
scanned
quadratic
1688
timmy
##mma
evolved
stadion
optimize
skill
[unused53]
##bay
mutations
aye
textual
##11
screenwriter
werner
reconfiguration
depended
brush
completed
metrics
question
reflex
##hh
puppy
certainly
sabah
chess
deter
unharmed
keller
cut
legend
##xious
literal
##ritan
specializes
carts
hut
sculptors
hidp
hurst
tending
kruger
composite
colonists
##oco
sparks
motorway
visited
parameter
##pone
honoured
[unused916]
sweetness
throbbing
[unused873]
entitled
##dha
firesat
inner
##icated
retracted
[unused759]
typed
kgb
nutrients
dukes
another
asher
##yde
skies
defected
karl
aggregate
[unused781]
establishing
vernacular
geese
##chison
gallons
1788
judaism
##yn
blockade
##wei
makes
##thed
##kk
guiana
heartbreak
##saurus
rebel
elaine
stanton
reforming
photographers
[unused283]
thistle
koln
processes
warranted
malik
puzzle
seasons
drastic
##ain
david
lover
jointly
scenery
steamship
action
##rrier
##ivist
##fulness
spot
peptide
overlap
routing
cr
christian
exploit
cakes
embankment
##pg
tack
devoid
[unused128]
travis
householder
##rce
##wald
##uts
inc
##light
present
##tious
subdivision
guarding
kbsi
replanned
##genic
verve
930
kitten
187
botanic
mohan
footprints
outstretched
dodd
gnome
!
increments
lok
northamptonshire
videos
supplements
capabilities
##yan
##graphs
ephemeris
healing
##ast
modest
yellowish
intermittent
fixed
exploded
rhone
spirits
monastic
wrong
##27
verifiably
grip
chilean
##kawa
realizing
adam
southward
vulnerabilities
rei
dealers
adultery
corporate
6.4.2.1
soul
yu
drifting
ace
detail
1963
hour
drawing
law
broadcasts
##ffi
500
protoflight
[unused131]
cues
104
appleton
shankar
stable
rulesof
sorry
chapters
runway
klein
chester
##ibly
##ttering
mass
entertain
reproduced
paved
2.5
club
liquidation
jewel
duel
shoot
tively
dismissed
chopin
whipping
fraction
sinks
malicious
dq
erik
lobbied
illumination
vargas
statutes
5.2
10
induced
severely
##uk
probing
disclosed
ipad
tense
commits
endeavors
remastered
##58
curtis
1892
distinguishes
simplified
##itzer
luxury
##fia
correctness
hey
ground
##uan
##jhl
fled
bouts
medieval
helpful
ronan
wilhelm
##00
ignacio
console
dmitri
explanations
advancement
herbert
acknowledged
deserve
mixing
sodium
sprawled
##drich
applies
medley
boomed
nap
lore
budgets*
divers
island
ashton
clouds
slavic
selangor
malcolm
manuscripts
bubbling
##lana
stares
finger
polarization
[unused375]
fools
souza
victorious
anthropologist
mcmillan
beams
##emia
bromwich
[unused73]
registering
[unused876]
271
backstroke
groom
gaped
##ances
srbs
dripped
1894
meeting
punch
interceptor
abstraction
multibillion
badge
nasser
1882
stand
harlem
clause
formats
disqualified
statements
conducts
supervisors
managed
##nical
sectional
[unused545]
marley
leases
growls
oxfordshire
limerick
environment
grassland
bethany
[unused94]
allowing
handicap
symbol
orbits
##q
dresser
journeys
mead
162
lives
tuesday
##som
oblivious
##mum
grandfather
##xie
nova
locality
biker
kisses
##dget
cis
mascara
sufficient
intrinsic
hanoi
[unused278]
gracefully
##ot
[unused896]
acquirer
quartz
resolve
##tec
morrow
vertices
continued
lima
irvine
turned
356
curve
marvel
taluka
assets
empathy
##lace
hertfordshire
wrestle
##lva
[unused358]
bloomfield
##ily
calculations
zebra
widespread
##ale
##hom
##runner
lyrical
880
championship
relationships
milling
##bib
welfare
##zziness
barak
glitter
santos
artemis
jailed
wealth
foolish
bing
catholics
frr
steamed
strip
canyon
performs
owens
[unused487]
##imated
preserving
gemini
subdistrict
ellie
##nall
eva
1858
liz
##ange
pleading
lyle
earned
##ower
benito
reset
1756
carbonate
barrage
rag
suspicion
cheer
singular
##rage
splits
regulations
donnelly
daytime
willingly
[unused331]
exhausted
fantasy
ted
sively
army
abbott
##mura
bran
##aster
habsburg
parades
sage
previously
augusta
michelangelo
amendments
##ckle
wrestling
bought
subsidy
anaheim
[unused338]
transmitted
##ices
##ischen
##less
the
shattered
slacks
place
totaling
[unused342]
ones
lodged
complementary
[unused192]
proteins
commonly
[unused829]
ice
assessed
envisioned
rice
nikolay
##rries
winthrop
midsummer
diameter
duane
data
##hips
shooting
luxembourg
starred
chickens
practiced
insurrection
[unused273]
patterned
##routed
named
glacial
demonstrators
##nob
sketch
doctors
##mberg
subsystems
odd
gal
architect
##buro
brest
moon
wagner
decreases
##mament
antigen
elements.1
donated
2.1
gulf
labeling
##vial
harbour
raci
creatures
applause
disabilities
338
=
[unused836]
time
softened
appropriations
jp
agony
##fu
so
##rove
lashes
semantics
##hmi
fireworks
[unused227]
growl
telangana
decommissioned
amazed
smithsonian
kitchens
riders
internally
preproduction
fergus
citation
icons
##cor
brenda
dalton
ea
scholarship
bellamy
vulnerable
jurist
tomization
artistic
stampede
diary
##tag
##iate
##iation
##bei
wang
##fires
##imate
star
##ometric
##tter
homogeneous
mercenaries
crosssections
specialties
glazed
##isk
testament
landfall
attitudes
jerk
wta
##osi
poe
gig
cochran
facility
[unused21]
bony
d
ava
cadiz
##bina
octagonal
habitability
sanctuary
ellis
designers
platform
perhaps
nickname
adler
baritone
years
214.5
cylinder
buff
fool
0.34
respected
sends
1823
considerations
##ify
api
wildly
beam
##ific
nsa
unnatural
capcom
catchment
multidisciplinary
276
##crats
utrecht
cooper
aviator
sealed
affordable
berry
stall
glad
java
eastenders
interdisciplinary
dolphin
distorting
snap
##lands
rocker
##link
seeking
syn
each
captains
hodge
[unused236]
windmill
authorize
versed
##child
shenzhen
prophets
gnu
##lism
renee
intervention
yes
tighten
##drome
system.
downs
##ken
thoroughbred
[unused44]
teamed
theme
duc
published
vinegar
error
##ians
contributions
##ocation
[unused847]
asbestos
##than
familiarity
shoes
##uz
##~
vila
achievability
complexities
austin
ideal
crete
nate
oriented
##brate
amnesty
lifting
##iface
picked
vespel
fairchild
##ggles
flavour
monograph
seduction
topography
november
1889
hopping
dry
##quil
divide
deployment
gia
insides
##vation
foe
lbf
tactically
cottage
1729
fabrication
phenomenon
anya
hasty
wraps
rn
[unused685]
madeira
fischer
discussing
doctrines
mu
psychedelic
deformed
##kar
bury
chieftain
shoulder
deportivo
ko
distant
widened
huts
eating
buzz
ministry
hollis
walden
consultative
##dy
strengthened
program
tb
##nova
columnist
disappointment
load
accustomed
##aby
[unused1]
regis
taylor
reluctant
celebrate
courtesy
dotted
textiles
unfolded
paramilitary
temples
milan
qms
1900
definitions
muslims
nasa
oce
##aea
shot
electrically
##ail
mercantile
##ssel
nolan
kn
five-step
celestial
prototype
minogue
subsidiaries
frog
met
usable
hopeless
fewer
seminal
fetal
casket
quivering
[unused102]
ham
##uls
stones
organising
delilah
stump
##sling
pointless
mario
shows
denial
instructed
thud
melt
launch
bright
walk
6.8.2
freedom
quinn
sprinter
365
##hammer
opposition
##set
unification
rouen
goth
solution
luckily
shire
nic
answer
readily
offender
exhibited
fraser
tottenham
veterans
guido
##cio
sneakers
alphanumeric
strongly
##ching
##wk
1811
plea
pudding
online
snarled
bradshaw
3.1
edwin
midday
kyrgyzstan
diagram
desmond
correlation
producers
preview
##bt
lantern
balkan
fingerprints
counts
grasped
##kus
voss
[unused912]
around
consequence
cardinals
##ld
carolina
##att
ita
christine
parc
1604
daddy
descoped
filmed
coefficients
##icular
undermine
##tric
display
investigator
daly
50th
spine
holland
lodge
[unused657]
eo
deciding
bi
stereotypes
spices
argentine
preference
usl
coventry
discourage
intents
[unused345]
expanding
teaser
collective
yamaha
depleted
##roller
90
beaming
##ege
##kala
##nay
conway
bred
##awan
termination
supplying
[unused574]
boarded
##oche
contributor
einstein
tommy
dir
##cent
snake
distillery
butt
##erative
##quette
dod
trending
pillows
https
##ives
##ley
vancouver
##ations
local
risk
conferences
gleamed
married
##ty
rome
starts
landowners
calculating
seamen
##utter
smoothing
##eding
asteroids
##ness
mud
##class
scarcely
sending
330
##kian
kochi
schumann
product-based
##cho
currie
q
sheppard
ball
investigation
feelings
isolate
gatherings
##ulated
##sser
optimistic
circumstances
sponsoring
lens
waller
karim
maya
advocate
guards
hidden
noticed
churches
33rd
alma
421
m
##nham
twists
brought
reuters
relationship
##ried
disappearing
lin
projective
7a
unfortunate
karnataka
ceremonies
##ening
wisconsin
apron
hansen
prose
1998
archeological
limbs
pository
stink
##ctic
listener
122
distances
1990
facilities
##unk
quantum
##ci
malley
motivated
rents
[unused172]
wagons
promo
##llen
##ntes
repay
commemorative
outdoors
matthias
interview
##avian
[unused286]
tak
tweed
##kha
future
print
slapping
getting
moral
bourne
##enay
collectors
drive
segments
vent
forgiveness
song
legislatures
justices
discusses
ankle
fellows
##pling
bodyguards
brighter
wondered
frescoes
coated
geometries
alps
treatment
fours
affecting
unite
pagan
invaders
inferred
attribute
maintainers
##iger
clarkson
staged
continue
spike
humid
blur
encore
##unes
##{
[unused426]
steered
shone
symptoms
joining
equator
##sities
rann
dollars
##pi
troubleshooting
looming
buster
cater
92
brent
paranormal
reclaimed
suddenly
edinburgh
futile
[unused52]
sofa
governing
translations
herbal
hearing
grinned
gazette
##while
[unused645]
deviations
stepmother
legislative
chassis
regulated
elongated
structured
##itical
sheets
gaming
fantasies
definitely
pretend
##ricting
machining
##ional
wet
senator
319
obedience
bucket
paddle
uttered
wreckage
porn
consoles
masculine
seminars
##horpe
monumental
##lea
brutally
synthesis
surrender
southland
1883
rejected
?
despised
sabine
kazakh
[unused641]
laszlo
bernard
[unused104]
atively
##rish
feminism
trap
hardly
[unused481]
compelled
constitutes
evacuate
commemorated
cosmopolitan
waters
[unused424]
clung
swallow
despite
ponce
remarks
crystals
item
indicative
camilla
odessa
controversies
beyond
loosen
josephine
cultures
wired
##unciation
landmark
laws
martial
bingham
128
integrate
precinct
sexually
raymond
all
third
outbreak
[unused755]
shea
228
labeled
##izing
wish
##rley
risk-informed
break
##ur
seniors
beef
breaststroke
premature
hatred
hair
[unused813]
ud
aces
5.0
emeritus
[unused908]
##tary
strolled
macau
neal
boutique
whoever
##ounded
examines
commuter
nix
greenville
decades
dd
nf
surge
noses
involve
reassure
rwanda
##tu
que
simply
framed
sax
imprint
herald
1766
oilers
glands
afford
bordering
##ost
turquoise
ro
graphical
raided
##ulously
systemic
lucas
ill
baird
began
disappointing
tbd
knighted
pastures
cinema
predators
sniffing
motivation
huang
incoming
march
knights
audit
coalesce
federer
##print
stabbed
extensively
chop
marek
##phonic
beforehand
drums
uncontrolled
steer
[unused686]
swirling
lccs
curtain
newark
barrels
victor
##ting
##mah
fatalities
shipment
pipes
prefers
minsk
haley
probabilities
[unused117]
##wn
disc
antony
cruises
##49
apex
[unused597]
designate
bothered
proponent
traveller
ronment
whitehead
intervened
diver
parties.
##ndi
cent
etudes
comment
402
gossip
quiver
##vira
##bilis
1700
sulfate
##ddy
quick
patsy
##bags
climatic
color
caitlin
##venting
97
1733
##bari
growing
decomposition
midfielder
1835
augsburg
hearings
##hr
truman
removes
layers
##ains
halls
electrified
harassed
host
konrad
1650
##xon
slits
pork
prohibition
##iculate
stairway
911
libel
##dating
##lov
orton
releasing
zimmerman
interrelated
##vies
pleasures
mab
undercover
tearing
roberta
binoculars
fellowship
##way
##jing
bride
freddie
tori
creation
candi
delicately
##nami
m3
hometown
responsibility
ambulance
developed
amos
mixtape
undrafted
contrast
postdoctoral
mustafa
azure
##uo
immersion
accounted
##bos
aziz
##nosis
##rkin
smirked
[unused768]
alternative
freshmen
mma
herds
le
marking
convinced
flag
injection
[unused159]
larger
bonaparte
##ddling
vassal
innings
pots
nathan
doorstep
mitigations
##riation
[unused334]
generating
obsession
##erman
flats
python
flung
porter
depths
cooks
##bbon
bothering
stephan
inquisition
vineyard
219
schwarz
leiden
bert
lucian
##ulo
equations
odin
[unused921]
descending
repeating
khmer
dipping
meant
conops
nation
clarissa
wetland
dunne
schizophrenia
sink
debuts
agile
stadium
golden
broker
emma
[unused708]
repackaging
viruses
mcgrath
[unused39]
disputes
ol
loads
backs
precision
suffers
clapping
fix
swat
##zily
purchasing
assure
characteristics
exploring
bis
51
alarm
##ista
jamestown
oct
stony
remedy
crept
donors
1948
1976
breach
abu
unease
countryside
sabres
shout
lb
tray
leather
presume
canned
manly
degree
europa
midfield
bel
fulfillment
delightful
roanoke
danube
ideological
caldwell
113
blond
appetite
communist
wears
did
##01
harvested
billing
[unused772]
forest
##put
[unused583]
##rval
fathers
kilda
bank
brave
##ink
liter
##kic
lifts
##tal
234
incident
##arney
insistence
neural
infiltrate
##ever
rotor
specially
definition
fresco
possess
bs
hornet
boycott
lawn
centers
xvi
##ently
afar
rigorous
bedfordshire
mickey
highlands
weaving
bicycles
nen
fares
combat
kern
that
computations
presumably
waterways
510
examining
oils
##tell
##rring
mein
workers
##<
##uit
pit
mean
prognosis
roberts
homework
decreed
meteorological
gaining
consolidated
session
hampshire
postmaster
versions
lars
ringo
##economic
held
methods
1600
archibald
1762
onslaught
winds
mechanics
gunpowder
clean
stevie
goofy
##tock
disneyland
supremacy
stemming
southwest
nay
[unused494]
stating
[unused28]
turkish
hendricks
lovers
brassboards
cluster
activist
waterway
passed
broadcast
discrimination
pointe
clocks
##suke
discarded
nontechnical
reaches
fallout
raider
quote
note
penang
lauderdale
adhere
##rh
car
1840s
rutland
bhp
baggage
suriname
bills
poly
penetration
ann
nicholls
bedford
##test
verse
gallon
marriages
transitions
##work
mrr
latest
adolescent
culturally
poll
cannabis
replacements
##)
difference
structures
##rne
whistling
bind
afforded
essen
rna
errors
710
celebrity
bathroom
flawless
i
texture
chsip
appalled
hara
thanking
dated
mouths
##rar
remembered
ephemerides
km_min
hand
##anne
blessed
obligation
represented
roy
dhaka
rings
biographical
inspected
nippon
sap
iden
[unused42]
syria
read
cedar
##shin
colt
expect
training
##nir
steamboat
[unused969]
##ota
[unused412]
403
panther
gomez
taxation
facilitates
spiritual
sanders
saigon
giacomo
darby
germanic
malmo
supernatural
##uni
skirts
jagger
blurted
[unused801]
filmmaking
##power
hesse
ethnicity
accuracy
brothel
armchair
shirley
##tia
comeback
formerly
colchester
bathurst
lobster
palermo
desires
##time
##cine
documents
tbilisi
mayhem
distribution
##amp
##bang
avoidance
##non
captivity
lineage
circulated
beaux
tall
simpson
##fahan
encouraged
krishna
admit
enormous
florida
proportions
ninja
[unused659]
underwood
##llie
undergone
otherwise
filipino
authoritative
[unused728]
189
##vere
criticized
perimeter
equation
footsteps
##ssen
cartoonist
[unused577]
racecourse
promptly
supportive
ives
hairy
underground
[unused113]
gesturing
##jured
1800s
##och
ambassadors
remixes
vista
##mbo
juniper
conjunction
selma
curb
confident
technology
stalked
interfered
reliance
kuwait
fc
[unused92]
hugged
request
##raf
mcleod
miners
##ngo
czech
1675
divine
courtship
undesirable
bachelor
toss
jesus
demon
snack
analog
##tadt
##uld
##orin
harshly
posing
facts
strength
kemp
lame
guy
sperm
fault/failure
sur
mystery
##bu
closely
beating
electronics
mistakes
merlin
ipswich
##tat
femme
maureen
typical
##edes
valuable
circuit
volkswagen
lighted
##off
grabbed
[unused596]
##inga
##osed
##elt
pei
egg
damon
retrieved
##shot
[unused600]
bluff
affectionately
incomplete
kenneth
[unused779]
##shing
namesake
highland
tracked
eugene
bandage
virtually
porcelain
moss
ee
knowledge
##ology
[unused783]
mcmahon
import
##gger
ferrari
blankly
excerpt
sutherland
weigh
##pl
arlington
##con
surface
aging
bullet
specialized
sets
##ix
chemicals
chatham
bacterium
map
lombardy
new
crowns
hungarian
time-sequenced
cot
##efe
kv
##tism
rendered
turin
ironically
primera
##tian
auspices
inhibitors
resemblance
wilfred
conversations
especially
sousa
nebraska
cause
pitfalls
tabletop
bordered
rune
badminton
[unused171]
dusty
wipe
ismail
clips
newsweek
peaceful
1742
fingertips
bears
##kko
playfully
silvio
[unused566]
minorities
bats
##hil
surrey
bb
beds
cumbria
322
convening
bite
adorable
voter
bremen
voyager
isabella
particular
gaa
editor
cream
hospital
democratic
1635
needing
lobbying
successful
elevated
bastards
veteran
fluffy
socket
heart
copenhagen
bland
slogan
respond
liberia
##bba
##eum
inaction
##gled
monitors
entire
associate
spartans
breathed
uh
stokes
salt
sonata
peking
museums
cubs
ashore
avenge
suitability
sans
missile
unique
##ump
quest
1825
##bit
partisans
growled
vantage
migratory
olsen
##oh
##lag
ascending
##ente
##asia
cheek
[unused679]
decommission
##sca
discs
##0s
crafts
##ods
hindu
butch
tilt
told
playwright
orb
harcourt
##aks
reformation
rihanna
laughter
prejudice
##lter
yeast
grandparents
##del
##ging
persian
[unused797]
leaped
billboard
monitored
crap
debate
##lander
stitch
upland
pantheon
binary
destroyed
natures
bluegrass
recounted
burdensome
establish
ucla
##wes
gs
262
principle
##ran
ar
bulletin
gut
body
mascot
vast
##tius
staunch
disorders
royalty
wicket
rockefeller
artefacts
ursula
kylie
pv
[unused423]
obscured
mandela
jay
bauer
barre
concert
##liest
91
circled
quarterback
fades
nurses
spiders
1924
chefs
watson
razor
stryker
1725
[unused271]
hires
wrap
arroyo
shareholders
troop
enacted
lightning
##gg
exquisite
adorned
##neuve
nomination
astronautics
socially
predictability
teenage
fates
tasting
cho
deploy
owed
knee
suspected
corrections
interruption
deficiencies
restrictions
whale
[unused237]
fossils
##sden
erosion
rationale
keep
op
juniors
##hine
noncompliance
286
utilizes
checked
travel
[unused289]
##omy
radiating
nursery
rep
##ac
xmi
##mark
das
international
[unused926]
##scent
incredible
mathias
urgent
adopted
knotted
picking
sight
intently
performer
tour
##oshi
h.
salute
donna
holy
##fr
archer
toppled
##oa
severity
flea
frost
antarctica
shown
1643
166
details
context
renal
##sche
[unused415]
73
transplant
reports
edouard
segment
1641
unmarked
aj
casablanca
escalated
1867
5th
wandered
[unused734]
##zed
recognizes
1954
saxons
coordinated
yarmouth
creeks
chattanooga
enrollment
arturo
bar
lucivar
considering
430
factories
marxism
handcuffs
mastering
jacqueline
brass
greene
azores
##ias
cooke
mation
3.4
pledged
servers
interaction
shia
gasping
drain
acquitted
eighteenth
[unused732]
pleasant
limiting
commence
magistrate
susan
88
airline
ky
imaginative
presentation
fraudulent
azerbaijani
[MASK]
bladed
luke
punta
151
protected
playoff
amplified
topped
filippo
distribute
ipa
##arts
##ral
castes
groans
agent
explorers
corrected
bangs
##romatic
begged
abbess
##bad
##inging
products
scheme
deer
fascinated
militias
##tti
finely
##bar
pilgrimage
paige
somerville
amphibious
natalie
278
astronomical
strange
rudolph
moments
##mist
share
approvals
o2
##icient
talents
kam
colbert
kashmir
primarily
introducing
cave
dickson
known
properly
killers
josiah
strategic
destroyers
handler
##cre
anand
dorm
twisted
leningrad
clayton
aug
##rade
durable
panda
remade
embodied
wilmington
distinction
hammering
downtown
presence
##uria
quilt
rude
climates
bobo
aroused
harvey
stevens
nearby
store
starboard
solving
jars
insane
##ys
[unused260]
tapes
repair
word
swallows
sensitive
upstairs
pakistani
spherically
chance
ruby
decreasing
fanny
##rator
madhya
wei
##ingen
##minating
lads
##ory
mercer
josh
[unused451]
bridges
stubble
guilty
##ei
unwilling
##ably
milky
commentator
chain
interiors
accountable
##chemist
jacobite
abc
[unused294]
##fell
suggests
benji
scan
library
avoid
83
immune
[unused752]
arm
diffuse
roster
64
sewage
noah
##wara
arose
##garh
critique
jockey
jia
email
jase
stiff
smelling
[unused229]
selena
daphne
dispose
stills
checking
shadowy
trench
regatta
##rth
viewed
clerk
[unused883]
submarine
luftwaffe
117
##sam
##tang
##enberg
heterosexual
##urities
troupe
wbss
dwarves
communes
pressures
clawed
restaurants
vinci
remain
scenarios
scream
tbr
fortified
bedrooms
crest
wu
techniques
tariffs
heir
gov
organised
actors
regulation
witnessed
moths
tagged
authentic
dashed
spec
more
gustave
nascar
organizer
litre
have
pastry
ob
capitalism
5.5.2
snuck
where
explores
1689
conde
appearance
history
stroking
##cut
dyer
##lot
rode
sell
donor
endangered
militant
eun
walker
lindsay
valid
donnell
ignorance
duplicate
damn
linked
##meral
##partisan
witchcraft
chimed
otago
morris
sighting
locally
powerful
mariners
##avio
##les
official
restoring
homme
[unused909]
protagonist
pleased
myles
biotechnology
##ira
hunt
##tour
origin
737
##us
nationalist
regarded
##eaux
hog
ellison
blush
braid
commanders
biology
posthumously
debug
diversified
glenn
meals
stung
respondents
##atz
remaining
hilbert
chrysler
significantly
migrants
ambushed
##cture
reginald
engages
cfl
##belt
unrest
ignore
endowed
checks
prostitution
saul
operable
cinderella
declares
caste
occupants
carmichael
subtracting
lawson
embroidered
solitary
metaphor
songwriting
rq
assertion
scott
police
parent
generosity
discrepancies
clothed
litres
hk
flinch
##liner
depending
instituto
frankly
preparation
crumbling
tess
evidenced
weston
##gue
clerks
contexts
dazzling
flight-related
##eia
penalty
patricia
126
mer
##ously
pizza
wooded
vessel
##zio
##bara
[unused992]
fee
##gate
##eto
innsbruck
[unused958]
yankee
largest
amtrak
##bron
##lein
viii
loaf
glint
far
michael
[unused640]
stripes
050
premiership
software
grande
identifiers
squirrels
wong
balkans
##powered
##xia
press
[unused938]
##3d
judgments
[unused386]
meter
##yang
revered
tossed
keyboards
##dell
[unused27]
finalize
hermes
hallways
##ivating
poultry
remix
0.5
##mu
summer
intersecting
ordinance
harrison
architec
voluntarily
robson
candy
endeavour
cemetery
##stor
heritage
mating
raul
##eo
doses
player
##van
tanker
##zos
controversial
burial
char
treasury
triangles
appropriately
gong
wavelength
gate
dams
feminist
greeting
webber
bautista
##rsa
families
ii
dusk
resistance
1773
mtv
janet
saetan
props
trousers
##uance
antiques
gun
lance
##mo
mural
[unused887]
[unused407]
hays
sparkled
job
information
amman
plastic
wider
pays
gunners
explicitly
##icon
[unused239]
##tan
epstein
acc
tropical
compassionate
questions
##cini
securing
subfunctions
etienne
societal
micro
chestnut
early
backing
2017
adjusted
stratford
##nus
youths
extant
badger
visible
opaque
[unused869]
villa
''
stockholm
initiating
keyboardist
##tai
gravely
##pired
dispositioning
[unused691]
gain
embedded
##nesian
lass
straightening
originates
winchester
tribute
bunker
25.4
##rane
businessman
nazi
##ivision
garment
five
stan
bulky
##des
realism
disks
[unused569]
##rcus
obligating
crafted
delays
[unused218]
1a
games
##ilia
moderate
insults
valor
218
morales
bolshevik
if
[unused453]
qualitative
##xide
village
illustration
workshop
deposit
1768
parasitic
##vana
rom
hysteria
beg
joke
labyrinth
##movable
magic
blockbuster
##ams
ok
wonder
preserve
opportunities
collect
gives
happily
equinox
##pot
facebook
satirical
youth
shivering
persistence
excursion
[unused488]
illustrator
keeper
meaningful
tumor
pier
reused
rowan
besieged
ideology
gettysburg
alyssa
erwin
waste
armistice
immaculate
comrade
##bbies
injuries
tone
awesome
livingstone
compromises
[unused269]
bosses
##rio
dancer
baltimore
95
cracked
paces
mozambique
patting
juris
cassie
commemorates
accredited
iraqi
richmond
disaster
##orro
##iferous
cinematography
gene
repression
irrigation
ceramics
represent
payroll
atrocities
br
tonnes
atmosphere
27
db
hybrid
parents
avenues
breathing
cs
consort
macarthur
seizing
took
[unused501]
cherokee
nightclub
##atter
##utus
instantly
towed
tuba
graeme
canon
hills
narrow
goldsmith
indifferent
indie
purcell
##33
sts
roosevelt
pinpoint
specifically
1971
failed
syllable
leader
farmer
1993
carpet
exam
sikhs
##point
obscene
[unused67]
paused
##ppet
riot
ceiling
feud
responsibilities
capturing
srb
clearly
ruin
saliva
##hesis
jones
glowed
fran
1779
estimation
excavation
grandmaster
automobiles
frustration
yun
7th
tyne
ramos
412
##sit
##hes
assumptions
width
railways
plotted
producing
robbery
##pc
521
glared
pontifical
##umatic
our
plumbing
1822
behave
1861
##ulf
09
##lav
repairs
gaunt
impulse
verification
[unused610]
drunk
emily
##tman
terror
##itas
##lu
##tale
russ
frantically
kelsey
harrisburg
necks
##shaft
ki
supervising
capture
predominantly
temperatures
##aan
we
keating
thence
fps
conventional
puebla
vanuatu
decree
[unused188]
toys
##ogo
##hler
beau
178
##ros
octave
7120.5
loose
mystic
agreements
hale
tiger
headlined
jackson
##gul
monarch
fife
necessary
serialized
nantes
clockwise
##forth
guam
agenda
libertarian
rhys
marie
sponsor
anthropological
hero
melodies
##hop
bribe
##uj
braden
frequented
crew
corpus
aeca
124
##lium
calcium
inadvertently
lumber
dorothy
quebec
sami
##ping
laurel
hoffman
##ute
fucking
thorpe
marathi
disagreements
teasing
decay
timber
drury
admitting
cowan
sharpened
suspiciously
##illon
fide
comedic
nikki
oliveira
1.5
bahrain
laughs
##chuk
##mart
##otte
judo
miracles
occurrences
ser
156
brick
godfrey
parameters
synthetic
[unused754]
damaged
grooves
hindwings
projecting
majors
[unused15]
##sitor
regard
disgusted
responded
donaldson
judith
plaza
repeat
procession
hundreds
mover
carole
questioning
##egan
aldo
il
investigators
casualty
con
teller
gap
cb
guide
broughton
filter
gordon
barrie
portrayal
[unused625]
chased
charitable
winnipeg
paws
taluk
avant
constituency
megan
54
tanaka
plymouth
footprint
beverage
inherit
obstacle
siegfried
nebulous
##gaard
mortal
[unused821]
grill
shocking
pharaoh
ordered
##ete
206
novo
warmed
establishment
starter
randall
practicable
nu
gui
delayed
deceased
mortimer
aimed
##ark
badly
exasperated
cuisine
##ution
pitt
angular
nc
gaga
tricks
juarez
screw
vegas
instrumental
##lewood
excellence
scooted
dimensional
woman
methane
bold
rampant
pin
threaten
subsidiary
skinny
edl
##bers
lay
tracker
kobe
derrick
chilling
1836
roared
##uc
coached
invitation
thoughts
denote
reigns
succeeds
approved
lump
ships
killing
triassic
##cia
##af
rocked
motown
##zi
plunge
weighing
apples
bikes
muhammad
flashlight
seville
augmented
1609
haunting
103
##bution
cp
tombs
##rified
##bid
unwanted
golf
borneo
niche
##vyn
howling
##rge
bathed
vis
denied
strasbourg
dynamo
##cr
involves
andersen
amalgamation
239
minerva
[unused598]
transmitters
merits
[unused606]
mae
contributes
appropriated
##christ
interim
##zquez
struggled
[unused942]
realizes
yielded
devi
neglected
trdss
premises
[unused398]
##udged
[unused341]
tiled
##esh
specifies
board
crowded
validity
stephenson
##ades
##eborg
[unused40]
##par
syndrome
dominican
##hide
innovative
jammu
##pins
interferometer
devices
ming
crawling
own
##rso
poked
runs
zone
##ative
february
spacious
ferris
tchaikovsky
##ders
darwin
degradation
ie
usa
investments
##thest
incidence
archaeologists
inevitably
vale
1808
switched
asa
[unused853]
siberian
flowdown
qur
conveyed
jerking
donegal
mundo
##gaon
9th
conversation
crotch
seizures
136
mechanized
involuntary
gained
alton
slumped
coordinator
lock
flyers
dish
4
discovery
illuminated
babu
##his
foxes
nodes
7150.2
minitrack
##abas
payment
tourists
pigeon
##400
cathedral
guerrillas
horses
##sko
jealous
##kan
[unused319]
applicant
duo
##anian
olympian
afb
reddy
##unce
xl
scorpion
helix
scarred
recovered
##tions
1605
scissors
##mons
poverty
journey
foundry
capped
expedition
tata
til
##ab
archival
semp
petals
sophie
defeats
dominates
ongoing
schooling
maria
##drive
overture
temperate
balloon
cinnamon
associated
homo
pahse
trillion
##yce
interactions
##eck
##aux
topping
inched
stilled
averaged
scrub
antibodies
fremantle
##c
##cek
combining
22nd
wiener
##gard
dor
[unused217]
##ulio
temporary
##hue
##ham
diplomatic
lamp
dawn
unopposed
[unused698]
valkyrie
bayer
##yr
selfish
dna
colonial
1870
##ifier
follower
subgroup
recommendations
admission
##llin
denominations
fat
##eak
artificially
##gens
glamorgan
##ked
adult
football
toe
##sty
##sse
amassed
bacteria
ascension
detector
downloaded
susie
momentum
##kra
wards
convened
##ined
[unused805]
enjoying
144
mil
clube
anderson
recipients
min
drilling
leaning
prohibit
possessed
bruins
mourning
furnish
jordan
or
valiant
vein
shear
samples
este
techni
grading
transitioning
debra
maddox
##gf
emigration
amc
##iy
[unused33]
griffiths
controllers
##burn
##tered
plank
##emon
##ill
grandson
visiting
1860s
whom
##'
priestess
dave
breached
apache
genres
substances
##37
steven
verbs
antibiotics
hours
##eem
retiring
##croft
baxter
[unused831]
crashing
fmea
awakened
promotional
pac
oyster
genetically
[unused215]
##cha
##vc
cello
delve
website
##sf
nostalgia
hottest
poem
##dian
replacement
##ads
dip
[unused654]
nero
[unused191]
travels
##mx
memory
oversubscribed
cheung
poznan
keel
concordia
painting
decommissioning
##inking
dh
[unused500]
ic
##je
constructive
improvised
competent
lam
paid
omega
wonderland
##slin
1642
unit
pricing
##nian
reprised
##fighter
unable
industries
noctuidae
johnstone
labs
paragraphs
emerges
berwick
224
subsections
unused
condom
341
thrust
terrified
hovering
reformed
beautifully
corbin
trials
evaluators
vertex
judas
soft
muscular
nsts
watford
guarantee
territorial
##top
multiplayer
kassel
telugu
kenton
emitted
d/e
shotgun
whitehall
corruption
salzburg
special
dangers
fallen
##taking
strains
lawsuits
hoc
bet
cerrs
accelerations
spill
163
##tive
##gated
brig
squads
shelf
violently
schleswig
equestrian
infused
[unused332]
frown
theatrical
1667
##rok
punched
[unused222]
retraining
##lun
atomic
##sey
outfielder
politics
potentials
comfortable
grim
tributary
felipe
##56
thong
[unused264]
afterwards
##oked
trended
gt
##hon
detailed
seller
telenovela
notre
##rzy
72
ist
reliable
histoire
frey
style
roofs
traded
lanyard
frames
xxx
guerre
##bula
##dp
##gill
##j
cypriot
awe
mahogany
##works
##bby
bombs
lots
blackberrys
formality
supermarket
meath
ernest
prize
adolescents
satisfaction
##yle
piazza
[unused257]
[unused313]
linking
airports
destroys
agrees
[unused18]
underwent
awoke
semifinals
suspects
contra
demonstrations
##oting
##}
e.
##base
clock
confidential
##jong
graveyard
dev
arrival
detachments
md
estadio
sticking
notorious
ware
falcons
[unused561]
artifacts
collaborator
somehow
constructing
##mussen
connell
honda
neill
bas
denise
recapture
masked
doo
bundesliga
offshore
[unused839]
aloud
stats
went
urbana
potsdam
conqueror
cf
[unused663]
compulsory
sims
dislike
shaking
report
abortion
##dication
##rcle
tae
salamanca
huff
everett
conform
superseded
gag
asks
favourites
clubhouse
##uw
required
[unused893]
[unused819]
rochdale
##ttered
##rwood
##in
internship
leyte
anson
medicines
chiba
maddy
jameson
danger
nestor
rios
commandos
maori
spurred
##mic
integer
zen
##eber
alexis
estuary
seat
hopes
author
aden
naturalized
flores
brothers
broadway
2005
victories
fascism
successive
[unused97]
navigable
unbelievable
packaged
kelly
rainbow
liens
##pine
zodiac
dating
illinois
##wheel
##shi
worse
decompose
dla
bella
dakota
peel
[unused694]
islamist
entertainment
zeke
distance
constrained
oxidation
benevolent
inventions
1752
thunder
[unused617]
gearing
planes
antique
pools
ore
bunny
chariot
hurdle
##vani
similarities
sporadic
steaming
##rder
noted
##sis
lace
[unused84]
nitrogen
sanitation
blanca
bumped
unexpectedly
coco
decompositions
slot
##efined
wat
jerusalem
swirl
undo
fingernails
distal
##missive
huskies
##rca
others
postponed
romans
filled
flawed
thom
charlotte
disliked
songs
valley
decided
[unused939]
ashley
townships
prompting
saudi
fur
##ross
awaited
scrolling
kade
##ang
disappointed
alexandria
hull
hailed
##eti
cemeteries
phillip
reduces
##lster
prick
revisions
##het
ci
negligence
fletcher
trailers
opens
webb
million
shore
##ditional
avid
@
optional
about
landau
advised
##ouse
##mmel
worship
##rol
407
##head
necessitated
torque
##oe
##unds
vulgar
electricity
chances
[unused382]
immense
clarity
memo
entourage
auschwitz
suburban
affirmative
histories
##ipes
originally
francoise
mayoral
deviating
nicole
1670
superiors
emirates
biodiversity
insider
caspian
astoria
anders
minutes
mauritius
coptic
fleet
##ught
mathews
##ski
##irs
grandchildren
speculated
##ually
bahamas
##race
polyether
327
consist
consonants
##gc
sonya
abbreviations
blowing
welldefined
[unused857]
nicolas
##hir
edmonton
##dilly
orbital
jennie
[unused432]
jacksonville
mary
breeds
voyages
projected
enthusiast
institutes
qc
draws
native
quantity
locate
moans
##lese
ghent
##ensburg
rippled
resource
conserve
rang
##tral
[unused175]
confess
choose
##cans
127
##ntial
##suit
gym
iata
round
offenders
coach
stagecoach
compound
bottled
welsh
flap
wholesale
co.
138
safari
feels
cue
attainable
bureau
goose
ghanaian
voyage
##pire
formations
presumed
colossal
##hiti
combinations
according
kindly
expresses
vito
reese
padre
sulawesi
fiery
kicker
##dot
johannes
val
lowell
ella
darcy
radar
interviews
charge
verandah
whereupon
tripled
##rks
bulldogs
translates
conservatory
ship
indies
warn
streamed
##horn
domination
bitch
primaries
pale
smiling
espionage
hz
novak
evangelical
drum
updating
governmental
buccaneers
detriment
barclay
ready
males
740
42nd
hooded
rust
showed
accommodation
##etti
spilled
blazed
believing
unlocked
nighttime
scared
mug
##culus
maccabi
unilaterally
##iel
296
animator
rumor
neared
salford
repeatable.
christmas
segregated
henan
##gnon
sediment
##hedron
ia
kapoor
learnt
[unused806]
rooted
staff
household
eagles
prostitutes
hispanic
wits
##cano
dull
cu
greater
blanket
hear
wcw
drawings
francaise
greenwood
furniture
##nel
shen
jams
discharged
oliver
sylvia
bash
##finder
tank
##lifting
sweep
##sbury
slender
erection
harrow
##acing
arrange
mina
freeing
breakfast
khalifa
##mide
longest
##ilised
subjectivity
debates
appears
fatally
accumulation
##wai
prosperity
##mering
devotees
constantine
satire
execute
painters
##mute
tokugawa
magnolia
##lines
iterate
cheaper
commendation
##woods
0.1
regulator
##lessness
aquarium
failures
respectful
homestead
334
##ganj
package
informs
medallion
burden
dragging
##ctric
1801
stormed
stadiums
gough
spin
camp
tendency
##cko
tremendous
clinch
maynard
maris
constituencies
incorporated
scoring
diane
jericho
##yer
rhetoric
accused
resides
attorney
enclave
audrey
cabins
millie
##own
[unused743]
storm
promise
##aking
elevator
weathered
folk
subseg
abbot
rural
territories
ku
caliphate
strand
created
##cious
shreveport
##dern
interchange
cereal
archers
caves
reaching
barry
ages
owned
decisive
dam
absolutely
hushed
asking
milwaukee
agreed-upon
glaser
pay
[unused515]
elegance
rental
ring
##ish
reissued
##erik
peacekeeping
farmland
champagne
##rly
##chev
eta
##ao
yeshiva
rejects
negotiations
khyber
organ
landers
watch
[unused578]
##sc
differential
1846
hoarse
smallsats
clemson
flashback
albert
cost-benefit
##vio
throat
resigning
fairfax
pereira
scriptures
gestured
deliveries
moniker
##uaries
##che
##zer
[unused45]
six
engraved
shillings
blackened
one
##tino
gb
poking
##an
##cd
oaxaca
##bing
ioral
drafting
feeds
britain
qualifying
iteratively
##una
coven
likeness
settlers
georges
commissioned
ornate
[unused702]
sorbonne
##lder
peru
disorder
process
romania
nacional
##igan
flotilla
8715.3
isaac
universal
csa
duties
wetlands
overhaul
greensboro
##mler
corridor
resurgence
gown
[unused204]
teatro
lockheed
bernie
##iste
pump
arriving
revealed
gearbox
[unused661]
##ration
appearing
##hai
hacking
baskets
1663
##iman
recession
dortmund
harry
wines
yet
gentleman
stacks
davey
use
bandit
##hone
seeing
glasgow
pont
harness
advises
troll
socialist
##oney
apartment
frigates
anywhere
##port
##eal
malta
gaelic
roth
theater
longed
sexuality
purification
coastal
##oped
sweatshirt
invalid
stables
clad
protective
sense
uno
241
twirling
drives
candle
jamaica
hind
individual
1874
entertained
af
motorized
campos
dynamite
social
##oof
blaine
fitz
goddard
terms
unionist
##bo
loyalist
pp
##ad
brings
paste
charlie
garfield
petition
##diment
##lei
precede
guitar
##tor
1799
hi
s.
transferred
compose
cheating
[unused917]
##eis
nightfall
pivots
tornado
housemates
lounge
statutory
condensed
junction
##rick
routine
return
appropriate
fibers
enactment
card
weak
quarterly
stroll
y
ramp
southend
[unused689]
[unused771]
[unused318]
ride
caucasus
lucinda
advising
equip
mcintyre
athena
inlet
thwarted
patents
guarded
husbands
stamped
effects
uae
[unused975]
nest
bands
jimenez
pauline
doubling
programmers
##west
derby
michele
riaa
walkway
oxygen
accumulated
manifested
martins
cart
describes
enigma
##sion
##nka
suarez
business
294
westphalia
outstanding
churn
stake
ally
ots
sizing
[unused169]
experts
bitter
poetic
cher
somme
shay
maguire
indicator
painter
emphasizes
reins
tibet
guthrie
ellington
crop
endowment
sash
china
##cens
##taken
3a
calls
pune
battle
sounds
cochin
howled
71
##of
mp
##ored
fists
##kit
angeles
##ivo
[unused644]
##ril
gwen
could
current
effect
immigration
careers
invitations
gdp
forgiven
##isha
[unused795]
developments
licensed
attention
dr
rubbed
kicks
organization
afghanistan
clashes
scripted
geography
##wski
1970s
inspect
trouble
kentucky
morality
221
standardizing
gemma
worn
##nse
##cuting
recalled
nord
overlapping
orbit
[unused268]
square
mushroom
leadership
scarce
winnie
sweating
unifying
applicable
inscription
##rgan
##hire
jensen
geosynchronous
[unused274]
synergies
academic
robot
molly
perfume
maternal
colliery
flexed
##iol
outlying
dragons
human
reduced
avionics
directors
offering
plastered
omb
drowned
##ect
unnecessary
yearly
honor
formulation
##mins
master
bout
enforced
snaps
purple
tidal
fastest
implementer
crust
##rrow
hung
sweeps
3.11
uml
##gis
campeonato
taunton
manipulation
fed
caleb
precipitation
raked
announcements
presiding
artificial
clears
remote
##15
academically
taps
observation
earlier
embarrassed
awarding
wendell
##rona
[unused275]
stimulate
reflect
[unused401]
ae
leg
##zai
ligue
coordinating
theoretical
fleshing
moreover
sly
promises
attractive
1619
cantor
gr
105
screaming
refining
nervous
mana
montrose
credentials
bread
brief
integrative
##thal
sustainable
scarcity
hospitalized
##bate
mitigation
[unused944]
penn
supposedly
cavaliers
jalan
##enburg
exemplified
marian
cartoons
##dak
##zam
little
dwellings
jock
texans
latvia
teammate
callahan
##bane
##rino
telegram
sovereign
1824
nearest
excluding
coloration
staffordshire
[unused676]
##ography
tip
25
##lita
akin
##we
akron
takeover
regulars
##sg
results-oriented
##our
##bic
mi
[unused248]
##pp
chateau
eldest
##red
cbe
droplets
build
##wing
hamburger
rig
##lers
confusion
content
chests
mussolini
assembled
nationale
agitated
##yat
absence
subway
[unused557]
roads
##evsky
[unused320]
##nivorous
##ulsion
advancing
gum
jocelyn
advisors
lips
nick
cinematic
##mba
torqueat
##hdi
sevilla
cad
upside
andres
consonant
bulgarian
[unused311]
start
wanna
transformations
satis
intends
##late
creep
buick
culture
prospects
[unused197]
slips
eduardo
accomplishes
iranian
undergo
petty
fabulous
operational
appoint
[unused106]
uncommon
comprised
eight
installation
##istan
dea
very
thieves
hannah
lieutenant
##gins
pam
statement
hire
##so
##kal
embarked
##bor
slightly
altitudes
frictional
nid
decomposing
lord
humiliating
##hana
attendees
[unused153]
##lak
kobayashi
intimidating
##pour
##zaki
portraits
##oss
tuberculosis
propelled
##pw
##alle
assessment
wrestled
templates
convention
doi
bowie
##case
released
mutation
token
wrestlemania
[unused886]
contemporary
jed
betsy
undertook
23rd
yuan
zoology
1726
famously
sideways
hat
recur
muscled
mega
music
america
campo
##may
mutant
racers
handball
adele
boosted
sung
distinguishing
manipulated
objectives
raped
alligator
sculptor
harper
159
testosterone
louie
##ford
##anov
reducing
mail
##ann
rockies
classify
##ward
##all
coaches
niagara
##lub
##ki
devils
##sms
##rad
monaco
75th
plead
solidified
equality
sails
symbols
motto
##orus
societe
tear
investigated
examination
tito
recorder
bsc
provocative
eventually
revenge
gingerly
[unused774]
ip
netball
nobel
breathe
regulate
[unused765]
1749
reception
intriguing
stages
senate
boris
190
[unused965]
##yah
shuffled
lifeboat
subjective
guadalajara
##chua
##pia
##wear
subsection
paperback
defender
encyclopedia
niall
unreliable
##skie
treat
##ffie
252
packing
##32
assembly
##amine
tampa
[unused504]
community
resumed
##nated
loaned
##70
sanctions
motel
##anu
##rky
aligns
exposed
pali
houghton
markings
##shima
is
higgins
metre
222
scattered
electromagnetic
powerhouse
remember
bam
za
elect
parker
##dding
ny
[unused258]
toured
[unused970]
[unused750]
against
##zia
madman
reenter
##hma
romanesque
1743
thrash
prohibits
p.
leung
oz
ran
dropped
commentary
backgrounds
4.4.1.3
nuevo
chromosome
criticism
##ened
##ement
##achi
[unused59]
schwartz
[unused122]
invading
##alic
7123.1a
survivor
mcdonald
expenditures
topographic
##llo
mani
adventurer
##dened
comes
scrape
furnishings
thanks
lehigh
defunct
transform
##hay
ver
395
thankfully
vans
beer
pilots
withstand
sports
##wt
##fully
electoral
grazed
patience
lizard
excitement
episode
steelers
##fen
happier
##uted
inspiring
##ora
slides
morgan
cure
fracture
francesca
cardinal
[unused315]
##gt
scoffed
2000s
expectation
huge
participate
rt
bowed
protesters
founder
delegate
grow
##laise
shook
decatur
suburb
[unused393]
reinforcement
chopper
318
overheard
seconds
reproduction
eruption
##uze
influences
taxis
1664
turnpike
hiding
por
andersson
funding
send
goalkeeper
greedy
rhea
entering
mormon
##mont
lynx
uv
marred
reza
##cross
paso
nunez
##ptive
neighboring
vilnius
were
lc
kenya
checklists
aramaic
truth
pray
mop
traps
##oned
implementers
initiation
expensive
purse
complete
fails
##tively
anxiously
##ppa
partner
refurbishment
##kie
geoff
##zone
##uda
ecosystem
##titled
directly
bangor
weren
torpedoes
trial
shy
eki
##ship
news
##rna
lao
##gne
uttar
squeezed
billed
chevrolet
mainline
##lance
4.0
designed
cpc
mdr/sdr
proxy
timor
diesel
notch
3.7
trois
goat
skipped
theodore
mere
##istles
knock
octopus
visitation
##herton
jogged
fis
##ming
externally
hyper
tractors
protects
fruits
##ek
supreme
monks
boil
##olio
sven
windows
landings
fidelity
reproductive
1738
cosmetic
fences
##clave
compliant
traversed
tin
##cars
##pipe
validations
mother
receptors
lopez
brooks
disputed
terre
survive
wayne
organisation
demonstration
marxist
##bh
smoky
dome
5000
##grant
elders
creative
title
adamant
nas
estimate
advocacy
sheffield
hating
##bal
##odle
natal
isolation
sued
##ates
##ice
[unused719]
fit
antonia
##pps
acceptance
##e
##uter
attracting
##ncy
byzantine
spots
athletics
poisoned
awakening
professorship
trailer
exported
torpedo
[unused526]
##dridge
sinclair
simple
montpellier
bo
grind
dreamer
holstein
##her
tasmanian
endorsement
##ieving
##rates
kenny
englishman
1829
ten
weber
limp
liu
metro
aesthetic
travelling
satellites
##via
##lley
theorists
ric
tablet
isometric
incompatible
mustered
personally
vfl
hans
geelong
##elin
eddie
mitchell
packet
quakers
##tracted
scouts
cloak
62
openly
covers
cones
ministers
eisenhower
##cer
43rd
1100
drills
wyoming
surgeon
anita
burlington
specialised
peaks
ironic
swindon
##itte
##nta
strawberry
plywood
laguna
trusting
6.8.3
puppet
basket
flaws
non
fill
birch
boulder
##chfield
rocco
##osity
aleppo
hussain
helena
uncer
guilt
##field
cried
80
improving
colourful
guo
[unused366]
counterattack
clair
boarding
africans
brotherhood
explains
slicing
##ssler
misunderstood
oleg
trumpeter
allies
slowing
defiance
massive
olaf
bananas
linguist
beirut
cristina
##rd
##uri
wind
pharmaceutical
grasp
mishap
memorial
##iente
firearms
accidents
che
okay
##rdial
intimidated
reporter
outset
vernal
chains
rip
expeditions
argyle
emerald
##iano
phillies
relocation
##cards
##ible
sleeves
watt
patna
drummond
##ak
spatial
ioc
ppd
##66
nests
te
bait
secrets
[unused933]
galley
reef
cinder
focusing
vertigo
causeway
##ulate
weeping
etched
situ
integrates
##or
1763
scarborough
upstream
fuji
substantially
traumatic
freaked
penalties
wiggled
wight
68
verifiable
[unused537]
space
explanation
banished
##cript
[unused687]
27th
keenan
regiment
trim
[unused993]
regime
amusing
agra
ipt
strangers
cia
##og
##azi
1740
classifications
hormones
miner
sympathy
##enting
[unused825]
ind
nurse
holiness
##points
##tique
status
breaks
text
mercedes
##music
##scopic
bed
die
##ffen
##es
meyer
frequencies
##kat
cancellation
answered
breakers
npds
compare
##sler
decent
lyrics
bastard
clamped
montane
wow
tramway
strife
mutual
confessions
216
curt
chuckle
insurgents
fossil
tame
##dan
bullying
soothing
synagogue
48th
##nberger
lucia
disappears
##atic
priory
iraq
prevented
##gong
forte
flinched
tips
ranch
tv
relation
illness
dom
mild
accompanying
gasps
indicators
concacaf
resident
older
[unused165]
mothers
nbc
bombay
slang
vaccine
[unused339]
shall
photograph
dramas
hanover
rooster
int
capacity
sail
##iri
el
withdrawal
cory
italics
airing
removed
auditor
mps
polar
stallion
##o
gaul
revisited
cafe
aimee
faithful
sai
rue
authorized
toxic
gastropod
##cki
sae
trembled
sud
lurking
definite
cordoba
weekly
##com
authorship
12th
vip
desired
populous
conquered
bartlett
##ani
##arded
##uding
somewhat
departments
berlin
flooded
refurbished
entities
tick
cavity
mouthed
[unused156]
settler
positioned
gymnast
##force
##lho
scots
sebastian
tehsil
barnsley
derivation
belongings
##ya
vicious
sculpted
manners
ghetto
settlements
landon
wrote
destroying
soaked
##nem
catcher
pack
celaena
non-measurable
##lind
addressed
rebellious
ousted
parliamentary
adriatic
eligible
##cation
minimized
regretted
flees
been
finally
fantasia
wallace
villiers
wilkinson
statistics
1655
ama
##agi
lieu
carvings
domesday
endelle
mitigated
##yu
disturbance
veri
##bow
##ules
6.1.2.1
cove
dog
dunkirk
waist
state
##aker
anxious
crouch
difficulty
agreed
##fs
full
sheikh
##ura
##ru
##nock
substrates
johan
emergent
graduated
mons
barrow
flared
##peed
friends
hyderabad
comic
2020
##nary
greenberg
##ples
orga
steadily
##ishing
##sner
victory
##pin
lazarus
silenced
bearings
##nni
exemplary
cup
homer
316
##zione
1839
darkened
jian
catalytic
electrons
event.
##gna
rescues
marginal
tongues
cryptic
saddam
residency
##hyl
##wu
authorised
dorothea
shrug
##holders
##eley
272
classmates
##ites
professors
allegedly
ditch
hyun
realities
domain
acknowledge
nod
shaft
[unused422]
luz
##ut
##ometer
abducted
resulting
condition
austrian
tatar
refer
declining
pinch
[unused253]
strikes
two
vimes
mitigate
gloss
7120.8
proper
ways
personal
##itate
##dna
straps
kurt
shade
life
rpg
clients
dungeon
##resh
##chman
[unused580]
tooth
disrupt
workflow
unpleasant
ninety
dies
lillian
chimney
exotic
foraging
##eb
steele
##lk
fmr
lea
emphasize
bono
substitution
pointing
beige
delegates
re
leak
##ado
gus
yates
##building
polgara
broader
excluded
cromwell
samantha
##ech
##burg
brutal
##zen
patriarch
cornerstone
change
luis
disturbing
[unused17]
##ue
trevor
curious
##wind
obama
ulrich
protege
responses
##thesis
recreational
[unused41]
##aja
musa
[unused317]
##ators
##ters
command
##charged
##illy
##room
dammit
invariant
alicia
wireless
coronation
##rn
finer
icps
##sford
monument
streaked
libyan
inactivated
whitley
1980s
##ieg
##nies
butcher
surprisingly
revival
hurt
economical
io
1820s
tumbled
##ctive
unspecified
sharing
lose
burying
harris
mat
marin
lower-layer
nana
wilton
punches
stretched
352
hulk
joan
[unused304]
##ffe
##heimer
colours
intelligence
district
regulating
seated
curl
madeline
sociology
amsterdam
preferable
coalition
narcotics
2.0
aix
lisbon
##ask
fuss
schneider
[unused475]
proposed
lsu
vague
##foot
forecast
partridge
along
collaborators
microphone
delaney
entrepreneur
355
cable
colonel
elusive
[unused396]
consultancy
[unused296]
moldova
##lore
experimenting
courageous
dinners
##boat
[unused370]
tarzan
trust
which
thriller
introduce
61
cocked
inaccessible
adoption
##ume
acknowledgment
imparted
swarm
assert
[unused383]
consulted
##oxide
mats
depression
##user
clicked
bloomberg
silesia
craven
##ear
lower-level
straw
##onda
interacts
ruthless
engage
astonishing
##bright
mausoleum
goa
inquiry
clothes
landlord
raft
choreography
tighter
##zan
led
confrontation
##cs
negotiate
ticking
truncated
window
advocates
##pled
##to
transforming
hilarious
foremost
empty
##bra
fraternity
cochrane
utopia
##ra
tia
tong
##crat
aleksandr
pendulum
depot
sierra
##uf
importance
drains
##vu
mg
wrought
consequences
nominations
inertias
respiratory
##going
consistently
myths
109
##list
pharmaceuticals
arrondissement
knocks
anger
reiteration
[unused186]
iss
dreadful
mom
soccer
wearing
crouched
conservatives
2002
pigs
peugeot
placement
weighs
ganga
detailing
be
stricken
##holding
wherein
##bha
gorilla
boys
##sol
tells
wesleyan
jewellery
j
52nd
boar
mortality
ballots
warwickshire
develop
granada
##yt
wastes
cavalier
turk
lazy
[unused346]
wasps
groaning
practicality
factors
not
cohesive
##nza
##alia
##grave
[unused977]
rediscovered
sindh
##ong
flame
pressing
##the
ars
consciously
ordinarily
amelia
dwyer
peters
czechoslovakia
##53
freed
2810.1
##cote
sarcasm
##ocytes
##rry
hauling
liszt
mph
hovered
picturesque
repeats
##isation
situations
cpu
1751
experiences
tpms
rachel
struggling
authenticity
olivia
merchants
amenable
rushes
blinking
terraces
[unused622]
[unused270]
implementations
nfs
##rda
blame
grammatical
lodging
conceal
torch
##ood
[unused456]
##oese
##morphism
##olved
speeches
medication
formal
##wil
pounds
uta
t
eds
attackers
kaye
sasha
ification
barrister
possesses
burned
1903
ethanol
departing
##ags
deutsche
bags
de
##dium
##lly
1997
spreading
##ashi
##utnant
notching
1834
fishes
modernized
40th
kerman
modifications
harmon
rosenthal
show
hitler
cree
struck
smiles
pick
f.
town
concur
discovering
##ryn
chi
##wc
##uso
##eza
ascertain
feathers
##ow
implemented
##yen
8705.2
nils
hacked
nouvelle
daze
nielsen
pleasing
jorge
equatorial
sheep
develops
colour
reykjavik
aforementioned
goblin
amazingly
shit
qatar
depends
##hima
guise
latter
decrees
exodus
##rity
hostages
summon
faults
cheeks
requirements/architecture
towards
acceptable
uploaded
monmouth
scandal
choosing
track
##vid
agen
toll
##ouring
##bie
transvaal
casimir
mcknight
pouch
grimes
##tility
earl
blanc
finding
fierce
{
nico
wars
##lary
[unused189]
dane
builds
gil
nba
ruining
conventions
[unused793]
corner
bartender
manufacturing
kevin
sights
brawl
##ouk
scent
telescope
##tem
opening
jens
norse
deposed
colorado
nonlinear
##eras
restoration
priesthood
cruelty
[unused612]
disadvantage
modeled
##col
troubles
##ungen
torches
##ntation
nepal
##22
##tta
rigid
annoyance
gotham
arousal
##mme
##pack
380
##stra
cocaine
nilsson
organizations/agencies
diaspora
eileen
zionist
regularly
trumpets
manufacture
##won
wed
##ila
cumberland
wbs
lays
routinely
##ici
gunther
stepped
wrongly
relieved
tentacles
humanoid
##ite
gurney
cost
[unused549]
##rgos
and/
libraries
nixon
[unused301]
love
pits
erin
suffered
##flies
flop
collar
banned
thousands
particles
arden
ivo
##pus
would
155
margarita
grouped
convincing
##omics
joo
##sum
##naud
coa
antilles
1603
nsc
1722
##jana
fei
diplomat
##lean
daniela
villains
indexed
draped
effective
kennedy
thief
exceeding
portability
lyndon
cancelled
inherently
##phi
##ception
grace
residing
[unused463]
crown
mercury
guernsey
##nai
represents
##ardo
##unda
winkler
interceptions
##ergy
##tf
powerplant
[unused845]
vanishing
excused
vita
##igo
immigrated
queue
crippled
##pen
thugs
res
santa
eastward
##forms
flights
educational
centred
fractured
record
7.17
abilities
exclaimed
##scope
superior
rangers
grimace
proceeded
anglia
occasional
articles
mclaren
##nous
bodyguard
below
##eter
metropolis
1988
30
[unused536]
cigarette
big
desirability
perpetual
##anna
pressure
maltese
dana
proactive
##nity
##oper
peggy
clara
pods
deeper
succeeded
claire
mutiny
brazil
hee
ltd
hardest
metacritic
klaus
absorbing
patient
peeled
dart
##ky
narrayrg
finale
provinces
developer
hodgson
customer
##hosis
##isi
ils
assault
quiz
mare
gladys
madly
diploma
distract
##endez
murmurs
hubbard
incommensurable
pillar
##ated
admitted
burroughs
samsung
alvin
roam
##pathy
carlos
ladder
midland
bases
symphonies
mock
simplicity
##graph
lent
sv
dinamo
choices
violating
eclipses
[unused717]
mouse
tables
[unused935]
critical
grossed
paradise
genius
technique
terra
surname
##23
unveiled
mvp
fatigue
inviting
hardware
##=
computing
brightest
central
hillsborough
haute
##coming
prime
1753
dozens
rafael
250
##cultural
##ering
begs
##uba
heroes
similarly
##men
comparing
shock
vibrant
concurrency
plays
fungal
[unused85]
whipped
formed
balancing
threaded
mixer
[unused567]
gasped
practical
##ssee
fender
proceeds
francisco
learned
portrayed
loops
somewhere
530
subjects
glue
monstrous
##nding
fiance
hectares
belly
caib
recruitment
pang
reworked
##code
assignments
input
prior
hellenic
generator
las
predecessors
sima
bao
##nb
attested
jasper
fiesta
technical
sidewalks
##terol
##ude
ancestral
referred
contest
volga
cation
1837
church
assuming
##ante
undisclosed
vittorio
pancakes
richard
pound
[unused727]
recaptured
jurisprudence
horsepower
caden
bushes
date
abbas
portland
odi
nonvoting
shouts
r
curling
consular
audible
[unused656]
aviation
strap
barons
turing
##etto
nightly
ensured
##\
##rat
battling
malls
provost
whitney
exiled
munitions
##liga
ingredients
behavior
##pe
regained
liked
obscure
iv
##nz
legacy
radically
1996
merging
##ors
reacher
##aint
##nged
deflect
visitor
flanked
alf
lasting
confusing
rubbish
profitable
innovations
asturias
[unused915]
turkmenistan
baton
nanjing
maxim
##vos
printers
conclusions
magma
##drik
horsemen
hp
simpsons
blessing
mechanical
simmons
fingered
amy
reactivated
axe
##khar
##ep
undeveloped
rainy
##trick
marino
total
balls
strict
##lto
##ene
vascular
##ple
pivotal
salary
[unused195]
enzyme
temple
vicinity
##around
spice
belarusian
##uma
##phobia
socialism
healer
##90
rand
worked
symphonic
dwellers
med
killer
random
[unused931]
waiting
receivers
ching
gunshot
judges
##ience
expended
michelle
parchment
introduces
##ogist
announce
nad
edgar
1950
cared
vs.
berth
##47
crowley
timed
[unused164]
occupy
bob
##acio
curriculum
##enko
descends
electric
1793
hurting
uncanny
##dles
##ers
##bah
isle
commands
optics
##av
glancing
prospect
mammal
##fles
philosophers
attains
[unused973]
stationary
harmful
numerically
tumors
malay
ignores
darryl
ricky
animated
underwear
puzzled
misunderstanding
arise
marital
psychologist
provision
pts
65
oracle
nuns
stockton
zooms
documenting
raged
1899
salvation
)
soon
bonded
fugitive
dario
[unused61]
tub
catalonia
linnaeus
former
1651
apologized
aboriginal
armored
sprang
license
##anta
sudanese
chest
threshold
confirms
corona
biscuits
thy
pulses
bodied
ridges
cruise
sensibly
maybe
eee
motive
bain
hive
umar
optical
halfway
##38
baselining
holistic
##trum
sketches
invaded
honolulu
automation
johnnie
##il
attempts
qualifier
abusive
rampage
canvas
rerunning
common
wink
mistress
##hra
##hardt
damaging
angrily
##nally
ulster
fraud
##ance
##master
economies
coward
switch
james
[unused932]
sk
##dorf
alexandre
##uppe
rocks
##bella
penned
invested
##18
asshole
recital
##arina
rustan
vivid
denim
biggest
##uen
wee
jessica
archaic
planners
jar
convicts
conceded
manage
genuine
actresses
hailey
blinding
consolidate
silvia
malaria
snort
shell
sy
singles
wire
antennas
co
tam
dfb
options
scholarships
[unused95]
rather
constantin
boost
actually
garcia
deteriorated
##pa
yoga
levine
iroquois
engraver
converting
##borne
[unused472]
shooters
thin
venezuelan
sake
##jima
##tes
cavendish
##tate
triggering
securely
##oms
butterflies
##oi
geia
##sure
##osis
##ager
##mission
quota
rebound
frozen
hammered
biographer
relegation
goin
cardboard
troubleshoot
clarifying
[unused960]
entropy
smoothed
commemorating
##bility
crossbow
backpack
yukon
riddle
false
lara
##ocks
uploads
feed
[unused467]
confront
##eron
dunes
bled
moved
child
sharpe
cautious
odqn
##ing
patted
concrete
method
egypt
1620
deferred
##making
techno
respect
limestone
gould
worlds
prolonged
varsity
wine
refuge
purposely
collaborations
already
##zar
defence
awaiting
rider
savage
hague
genoa
uss
ventral
mounds
##iful
pigment
[unused448]
maritime
hillary
ahmad
236
##ruck
openings
defiant
itera
unlikely
substandard
breuning
##ocating
fond
##placed
birth
propped
rehabilitation
##ste
##lda
injury
grimm
buried
##anor
maid
brandy
mountains
expand
asthma
##king
crowds
interventions
percussion
390
cubic
together
stiffly
towels
deviation
maximize
##enity
requalify
correct
linger
1st
jacobs
humiliation
margaret
equivalent
##oslav
##son
identical
##athy
depicted
##nn
objective
biological
slippery
tensed
[unused381]
thrilled
selection
donkey
mirage
##rocity
intervene
penitentiary
##listic
grenada
##lux
bath
absorbs
##ured
jeopardize
what
wheelbase
illustrations
tvc
[unused945]
cub
209
recounts
sickness
jokes
##tp
darts
475
[unused56]
messiah
tonic
intelligently
paying
breeding
stop
advertised
##iot
bryce
##rington
engraving
sundance
missionary
granting
something
intern
jesuit
hiram
##gingly
sci
##dant
geometric
determining
bryson
##urg
signatures
intended
nell
mercenary
beta
##cision
avon
easiest
qui
vigor
700
traveler
unknown
becky
excessive
[unused607]
##pr
intercourse
belize
affiliated
[SEP]
fin
remington
bow
darker
suggested
norm
evenly
ushered
moors
##ographic
mcqueen
squinted
bop
eyebrows
rituals
##uce
chrome
crabs
unidentified
galveston
watery
fcas
fremont
peered
570
scranton
wryly
1868
aspects
peruvian
profoundly
descend
missing
luisa
civilizations
watered
##grounds
deity
it
##stand
41
treaty
repertoire
##ppy
##lars
delineating
##ndo
membership
liquid
squares
plagued
ndp
greaves
harvest
reel
memorable
[unused874]
commerce
markets
1680
##khan
##ce
ter
##take
crops
diamonds
swept
punt
stated
students
##lidae
tomb
referee
torres
ascent
[unused621]
funny
[unused343]
[unused211]
sands
8.3.1
archbishop
##eville
##db
cm3
[unused956]
augmenting
los
often
suicide
libretto
creamy
reconstructed
wrath
##ija
somber
1646
##tern
##bes
qu
2004
decomposed
orchestrating
rm
rare
##rea
mint
helping
sentinel
870
cuckoo
untouched
havre
multisystem
romero
evaluation
aware
##house
prestige
stdn
curly
solu
baffled
medicare
##elles
spared
##kka
diocese
sutton
##very
[unused288]
chapter
criticised
theo
favorable
opium
netherlands
direct
vessels
calculus
johor
creating
disconnected
##kell
turmoil
continuous
remembering
tile
h.1
##*
encircled
##region
tough
hepburn
liou
nightmares
impregnated
brewster
shield
tally
transparent
##el
provides
ingram
disseminate
devote
chihuahua
##lston
graphs
participant
coaster
cake
blows
hooper
accelerating
##rata
[unused389]
1906
tend
ups
310
firearm
##toy
isles
salaries
##thorpe
nicholson
madonna
impaired
encompassing
[unused308]
boyfriend
booster
administrators
begging
variety
qb
subsequently
clan
##rated
celebration
walking
##beam
baselines
av
thumped
lebanese
secrecy
1916
independents
[unused796]
fasteners
##missible
[unused314]
prefix
hyde
nigel
##ware
[unused798]
islam
escaping
fx
handles
petite
69
tumble
assam
rational
targeting
wentworth
gulped
claims
soho
noelle
concern
continuing
dauphin
pink
##vi
untrackable
join
branching
miss
##tley
stir
blacksmith
unto
victim
interdependent
carpenter
journalism
lowland
##mity
applying
##ial
integration-enabling
bukit
enters
containing
anzac
designation
agatha
percent
1697
detained
timeframe
##tel
ohio
idf
recited
tubes
##gram
sanjay
partial
##eased
causing
##turing
circus
lifeless
chelsea
nak
levant
6.7.2.6.1
1769
sofie
uncertainty
##itia
mark
redline
archaeologist
constituted
##nto
tribes
procured
drank
sandstone
cologne
doha
traditions
gibson
instrument
adherents
nss
swans
kinship
serbia
mouthful
engined
monday
porous
retire
professions
laval
cobra
org
tavi
acoustic
breeze
revolution
subset
nonfiction
clinics
figure
anomalies
##kling
squash
setting
quan
entrepreneurship
syllables
##imi
climbed
atlantic
##ency
tis
allergic
vikings
everybody
policy
[unused285]
sailed
cerro
##leen
duchy
##eet
blazing
nicknamed
fruit
##pass
##tops
lithium
tim
silly
anytime
arrangement
sharon
platt
tuck
post
containment
sarajevo
gable
importantly
belong
touched
shane
heap
tested
instance
shitty
beauty
happened
certifying
tenant
nutrient
henson
companions
sonic
afro
1.4
european
drown
editions
milo
strictly
shining
satisfying
york
hates
enjoyed
allocating
##bi
wilkes
easton
del
successors
##cas
##brick
[unused310]
##worth
gospels
thank
signifies
addition
imminent
grammatic
upscale
roc
house
jumper
listings
travelers
ops
flying
57th
clearance
dispersed
unicorn
approaching
moi
terminus
slovenia
condoms
offences
7
arthur
dense
distortion
pena
##dine
repetition
306
challenger
ache
wednesday
sato
outlines
##bill
buds
thirty
##waite
better
rail
##rath
##ax
confronting
expecting
likened
ridge
tanks
fad
axially
p
dismiss
spitting
psychology
salle
serviced
##wice
responds
deceleration
alessandro
vox
fronts
samson
belinda
produces
gland
constitute
rosario
strides
insisting
##rell
finalized
outdated
1959
somethin
55
##rza
##ally
archdiocese
review
bonuses
interchangeable
qualification
atoms
whimper
hannibal
1682
barnett
##ides
psychiatric
boone
stepper
##krishna
pepper
redesigned
attire
armand
coordination
creepy
garbage
afterward
##24
utah
archiving
overturned
howard
##hort
fractures
swirled
th
peg
archipelago
gram
skier
##ywood
##pan
squirrel
counted
[unused65]
[unused81]
##sso
reuben
##kaya
optimizing
batavia
nitrate
alumnus
hilly
beneath
contractually
hardship
flows
alcoholism
galway
excelled
austrians
syntax
barton
triggered
branded
sign
locus
martian
lap
offensive
antoine
offspring
[unused394]
bounce
workmanship
clement
martin
receives
baking
1937
procedural
bowls
geographic
chicks
scotland
##otic
rae
##suka
radioactive
jersey
congregation
clapped
jc
broadcaster
louvre
##ne
ceasefire
suv
crumpled
initializing
##az
abolitionist
sagged
secretly
##rra
flair
kpp
sun
##cino
##gation
consecutive
1580
peck
lausanne
financial
##chio
trailed
##grove
witches
columbian
armagh
pockets
##cb
revenues
197
acacia
havana
##mite
democrat
nosed
villagers
significance
[unused435]
mumbled
abdomen
recent
\
fluttering
herrera
tournaments
750
tones
baked
##mora
skeleton
##aia
theology
thirst
colonization
dorchester
chambers
##thic
davidson
##usa
quran
titanic
sweets
##sai
graz
planetary
babe
hasan
taut
relational
positively
stool
pandit
[unused511]
##its
walt
##claiming
potomac
feedback
relies
comune
overlaps
northern
##ox
transmissions
idiots
bottoms
goalscorer
##ats
allan
burnham
steward
frederic
##ization
quoted
giving
georgie
brook
##roy
9.4.4
1400
minimize
dormant
[unused303]
muir
##t
duly
550
trl
##dur
broke
merchandise
hope
timothy
filmmakers
disease
##ducted
oath
garrison
kidd
hop
[unused885]
lake
##ua
##cat
##tz
saunders
positive
berger
##pt
continent
rb
##national
lied
##mise
losers
marched
predict
atkins
crowe
shaken
talented
dictated
hamilton
tariff
personality
##ram
##press
swallowing
sing
odor
[unused276]
jess
cadillac
debt
added
traders
arenas
decidedly
##osaurus
export
hired
protections
weights
##iba
##nator
piled
##jak
##nting
411
barriers
mack
rot
southeast
1856
instructional
[unused548]
american
shutter
remarkable
squeak
##zers
tiny
##ssing
##gam
##zle
births
communal
dwell
pieter
regent
motorsports
aluminum
galaxies
hated
##break
##cton
damian
take
complexity
mama
sterile
1985
stray
##oid
blunt
popularity
editorial
rape
olivier
perfluorinated
bids.
##ivate
##op
ddt
deep
needy
##elis
225
subtle
folklore
1795
signage
violated
deserves
krytox
lester
ashford
##iciencies
alternatives
excited
warmer
[unused898]
religion
lena
millimeter
##nx
rounding
6
guangdong
placed
converts
lamps
visuals
mondays
scratched
everything
practised
filming
##icum
brackets
flashing
nrl
regions
directorate
displacement
careless
departmental
##lized
oversized
jett
drained
barrington
vectors
1902
##card
revue
poems
1716
nical
pierre
bard
gallo
equivalence
votes
pious
pens
separation
dunedin
walls
development
forsyth
##nick
room
compared
murderous
antonio
##cking
samoa
##vius
oversees
##lice
##hausen
##oun
felicia
laboratory
gonna
wheeler
federation
hutton
irds
meteor
devoted
pornographic
panties
##yria
[unused356]
angel
##va
governors
violinist
ization
prisoner
museum
##acle
exhibits
3.0
yelling
illegally
chatting
member
fragmented
hesitation
##ada
captured
1817
fisheries
cliffs
dimensions
1789
indirectly
verge
girl
montagu
accidental
bruise
cw
medals
##cide
hr
patterns..
maintenance
robust
bench
swelled
ensued
##piration
grafton
jigs
cinematographer
[unused775]
##iana
##farlane
tens
barge
shrub
infuse
wreck
linguistic
committed
translating
shortened
transgender
come
##cheng
##puted
joel
glass
blankets
lancashire
wring
bye
upright
giles
wires
##br
seldom
vehicle
vickers
rican
##analysis
glory
helsinki
meantime
whisper
straits
palestinian
siren
[unused403]
pistons
immortals
marks
pierce
tightly
[unused387]
pandora
sausage
nonprofit
##ifiers
sack
k
while
atlanta
##ruff
##bush
wiped
##logue
screenings
explodes
diffusion
burnt
alistair
phosphorus
##ht
avery
monsters
[unused635]
rulon
##viere
3705
##wo
strangely
fortunes
##tte
assumed
##wi
pornography
middlesbrough
tal
[unused491]
progress
##cky
extended
##sw
maize
fertile
7120.7
stephens
design
sees
[unused890]
recommendation
bursts
jonathan
jonah
towering
departure
militants
invariably
[unused427]
##tein
vowed
destinations
interviewing
cameras
duty
171
denny
comet
won
ilities
##don
hostile
skimmed
motorcycle
monterrey
##dran
buchanan
shepherd
captives
behold
##held
celeste
contents
discovers
preschool
ethics
prestigious
tributaries
##els
gray
josef
##slow
pops
wills
leto
kristina
arsenic
dawson
organise
stochastic
cylindrical
hmm
fred
mathew
##fb
##back
tenants
arcminute
vichy
korean
overhead
nuremberg
fail
praying
strait
##md
academie
sloop
dominate
electron
belarus
elephants
cannot
1739
herring
para
snowfall
concourse
proficiencies
##nium
newport
recommend
moth
5.2.2
##rest
inspectors
##uting
hierarchy
##eed
##castle
##nio
cornice
approving
blurred
choirs
##moral
then
100th
##ums
switching
guidebook
##eria
tor
##oom
marshal
##quist
straining
[unused758]
hermitage
##ro
arts
merton
fitting
##metry
##7th
pdf
established
agrarian
decimal
starvation
##kovic
polymer
teased
##smo
compilations
##vill
men
##zcz
deutschland
semps
upgrades
dorsal
##inger
carlson
6.1.1.2
sonny
elects
people
parcel
##45
afghan
[unused428]
civil
##meyer
bmg
##ossa
hosts
thick
ste
lama
[unused517]
##kin
##cos
commented
artery
demoted
##ote
##san
threatening
testified
free
shipments
exeter
hawker
##hill
waistband
##nes
solved
certification
guns
130
likes
commons
shared
fangs
speedy
heels
formalism
drifted
folded
consolation
economics
worms
irony
telemetry
unearthed
1813
northwest
afternoons
species
brad
throne
joking
[unused627]
marne
cruising
##pon
##fur
finn
268
##ied
##witz
hf
fungus
##ntal
##vac
noncompliant
imprisoned
complain
agma
cheap
commemoration
##oum
asiatic
pulsed
##zano
speculative
battalions
strikers
[unused629]
salmon
seafood
emergencies
conflict
velocity
madame
historical
stresses
proceed
newcastle
municipal
lowered
31
arising
discreet
hahn
prisoners
##bir
duet
holmes
large
clearer
brandenburg
kings
sean
33
[unused867]
near-term
##kushima
parole
beans
##ncies
##wed
##(
nuclear
##uring
harvesting
##vie
annapolis
##led
settle
figuring
[unused614]
odds
##ole
##rit
sega
##nation
seasonal
sham
##shire
eaton
brew
waited
membranes
crazy
loss
collapse
jacques
horizontal
zombies
28th
times
honestly
suit
campground
streets
charming
##tain
synchronized
analemma
brennan
following
yelled
tackle
reasonable
##mond
coli
poor
rollins
laser
artisans
alteration
ulysses
inverness
grid
timetable
nsw
z
soviet
[unused442]
sermon
educator
rods
disney
owen
part
deception
faber
continents
##nsis
relentlessly
##icate
rule
annexation
##lwyn
richter
[unused379]
trip
photos
twelfth
repertory
chaired
rahman
##iard
wilder
wealthiest
refit
oak
idd
osman
destruction
rainfall
bushings
ponds
iconic
liminary
[unused196]
marathon
sharma
raleigh
groin
civic
chair
partially
##bry
460
adopts
##omba
eighth
ransom
parts
urban
parting
grey
sleepy
realistically
disposing
accusation
shortfalls
accelerationmay
tram
baker
alexandra
presided
commit
pow
warlord
madras
macy
wilde
crates
tango
1880s
##mia
beassumed
cages
##ik
##rook
150
heaviest
tug
##dity
##ose
theory
wyatt
clarinet
launcher
ubiquitous
^
ren
sabha
[unused82]
ultra
padded
##ell
tina
assess
##kr
produce
premier
attempted
defenses
cfr
60,000
aggression
mosques
disseminating
aristotle
##bson
speed
##lled
maintains
seamus
licked
##aday
gritted
[unused54]
##ein
belts
skye
swearing
##hered
payments
justified
[unused690]
belgarath
infirmary
##cite
aged
##lite
iucn
koppen
paced
inspire
##jal
manuscript
##zak
##amps
1720
[unused225]
##mento
mattered
67
casual
##gra
northernmost
fox
##ese
remixed
restrictive
[unused438]
##hri
litigation
mayer
##onate
absently
scratch
##tream
notion
breaker
document
slalom
##acy
cox
1848
##ino
implicit
tallinn
serials
viktor
possessing
##walker
clade
enter
dj
gruff
##cey
translator
covent
dona
##f
[unused109]
standardization
bones
##pes
endure
glee
nomadic
survived
lloyd
apartments
vegetable
goodnight
##main
inhibition
mahmoud
ultrasound
investigate
pain
wash
lexington
examples
instituted
plainly
pulpit
254
subordinate
hudson
##oured
flinders
fate
module
enoch
basement
tre
knicks
mazda
trends
housing
##qui
sheer
boogie
circles
apical
hq
disabled
recovering
mikhail
amateurs
estimates
peek
off
##ital
varieties
##cot
opened
coal
##hei
interface
bacon
flushed
rack
##rled
fly
wolves
lauren
154
[unused773]
onions
stimulated
greatest
9
sweden
looks
##urn
sentiment
thrusts
basis
ocdm
concussion
certificates
knockout
grunt
listen
injected
trailing
starring
followers
##lent
detectable
bathing
broadband
crooked
gifted
[unused112]
repeatability
mari
##aco
itunes
5.5
belgrade
leap
albeit
statewide
easing
delineate
rejection
shuttle
monitor
strangled
287
necking
when
frustrating
maneuver
ignition
bristol
cleaning
[unused930]
confederation
routes
publishes
malaya
satisfactorily
evangelist
browning
##working
supervisory
leaned
avoiding
##kong
##rica
convey
implications
orson
guantanamo
murdoch
rash
pki
enlist
revealing
disk
integra
zhou
mayor
confiscated
craft
messages
[unused604]
implementation
tucker
bela
explore
cultivation
literacy
uniquely
guineas
##ade
##ption
coarse
rouse
unfortunately
defending
schooner
tucking
kitchener
allegations
proposing
teeth
perform
trinity
seriousness
cracks
distortions
commodities
##aly
##bridge
past
##ating
ochreous
residues
wanting
arabian
[unused562]
favorite
reviewers
doherty
playboy
continuum
conflicts
delicious
##por
##nt
muttered
##static
president
piracy
ghostly
##eer
imagination
##cade
spacefaring
smacked
shakespeare
deux
bloom
swore
213
eliminates
##oud
ferrara
tate
medal
comedians
achievable
insights
fray
per
##atory
addison
too
aversion
ruse
possessions
received
assistance
rowing
complement
[unused48]
trek
gamble
disadvantaged
unnamed
essendon
component
robes
##fers
surrounds
sutra
impairment
acted
interacting
heidi
havoc
nunn
pat
surroundings
uncomfortably
slump
enhanced
nominal
departures
cocks
conversely
pierced
##ogan
fins
observer
exhibitions
cote
nk
chronicles
moons
intent
sidewalk
shakes
jet
gots
touching
glendale
##erin
parks
outright
showers
##cturing
descendant
countdown
disrepair
alpine
[unused184]
crystal
##mann
##tist
1914
registers
handy
cyclones
second
connected
builders
una
[unused126]
shiny
orleans
spicy
imperialism
romney
julian
captained
stomped
khan
##unas
##tou
##thermal
baptised
islamabad
releases
penetrated
eras
material
awhile
meanwhile
fargo
geologist
http
toxicity
compelling
rappers
loser
rustling
sony
fumbled
walkers
versus
##lik
thumb
##rud
tablets
##ous
stroke
depicts
drones
cramped
erie
clubs
stair
who
down
centennial
engagements
mathematicians
[unused199]
hemingway
##asse
combines
drr
##xx
tucked
smsr
remnant
national
cellar
installment
inverse
inversion
intercity
##eth
neighborhoods
nine
building
cop
##stead
anglo
cured
automated/automation
war
1152
realization
keys
now
foley
replicate
finished
poised
analyze
nephew
##rich
conservation
worry
inclined
##hila
attained
##alis
##sund
allowable
##kos
erica
funky
[unused55]
symbolism
raj
passing
haunted
catalina
messing
entrances
reliability
darted
practically
providing
baja
punching
parked
microscope
##y
debts
occurs
##enes
stuffed
[unused221]
devising
plaques
almanac
##cting
else
##mada
curvature
##urer
surrounding
forestry
readied
lasers
separating
enlightenment
associations
shutting
441
interest
trading
outsider
fk
depict
er
back
26
2021
permission
unix
##drick
georgia
batman
pressed
complaining
##nie
##ours
security
muzzle
##gawa
gonzales
pearl
##rew
##bl
1758
fridge
&
bellowed
mile
talks
##ffy
independent
1931
centering
##oto
imaging
blade
abe
fall
[unused443]
reliably
discrepancy
granville
##ug
proceedings
frankenstein
rolls
bend
care
##ragan
materials
idation
unbeaten
annual
discount
pension
##nche
rick
wurttemberg
[unused125]
bunch
ked
blooms
1946
set
seductive
infected
##aves
fortunate
melancholy
chunks
1969
253
brianna
apparent
##umi
benefit
##ively
slip
fuller
fuse
randomly
##hers
emc
books
tun
pakistan
jakarta
tests
andrews
265
thornton
excess
bubbles
pigeons
pleasantly
orphan
statehood
phelps
advantages
##using
##plication
evidently
##phone
flexibility
##kle
awake
##cal
markedly
kills
##sper
##oni
consisted
eighteen
pneumonia
wand
grasslands
1925
##ska
lisa
efficiency
northwestern
pirates
advances
integrating
##kor
##17
mayors
belgium
masovian
nelly
leaks
accomplishments
eerie
pictorials
buying
##mics
strategically
tread
race
[unused58]
apps
making
granny
lecturer
addiction
copeland
##core
concerts
cc
behaves
cries
[unused418]
soil
rogue
furiously
1986
layered
guangzhou
snow
lublin
danielle
##ves
apocalyptic
dante
lennon
panthers
##rey
puppets
staging
slant
##frey
181
vampires
[unused713]
socrates
once
grants
neat
##ckey
burnett
crushed
four
possibly
jaws
pot
##ractive
belongs
mas
pensacola
institut
incidents
liquor
[unused957]
erich
sequences
this
concurrent
##ropolis
afrikaans
players
mhz
hindus
approximate
##lina
seizure
ireland
##sham
footed
mou
tactic
shapiro
assyrian
pronouns
graceful
loft
fictitious
alone
system/element
commitment
unexpected
ndia
libertadores
[unused875]
406
tokyo
exclusive
sti
[unused979]
[unused730]
rayon
still
##iensis
[unused565]
technologies
incomes
dallas
hereford
##ster
misalignment
denver
intentional
trucks
molina
glide
congenital
telling
babylonian
flanks
functioned
##ographer
contiguous
packaging
side
beers
generators
[unused826]
italians
##vas
##berry
andhra
##rnet
ida
scans
recognised
##urus
classified
expense
toledo
to
putnam
coin
legitimate
##box
actress
tomers
initials
[unused703]
anthony
##stellar
structure
may
partisan
bingo
120
powered
116
[unused766]
49th
retaining
aragon
recipient
##nail
twelve
##rini
##tch
dance
shimmering
##yes
[unused844]
kwan
##uttered
praising
[unused307]
recoil
hopeful
marijuana
foreman
aka
surgeons
confinement
nee
diligence
fluctuations
harbor
[unused706]
dissolve
analytics
screenplay
landscapes
candace
bleak
solvent
greasy
edible
killings
rebels
formulas
custer
prequel
pitched
habitat
measuring
jj
howe
henrik
steve
ginger
bull
ligament
confluence
##qvist
alignment
##khand
holster
##uck
iris
##ove
kindness
contemplated
cranes
r.2
racks
##oons
clever
snacks
polymers
tunis
451
athenian
326
##meister
conservatoire
hurricanes
grips
kidding
finishing
constable
hurdles
##vard
vibrating
encounter
barycenter
dilemma
##hood
[unused613]
norwegian
donald
juan
pe
##ure
##nent
##ena
cabinet
given
hangs
trainer
grotesque
wept
under
iteration
pity
titanium
1086
statute
unlubricated
throws
bernardo
bernstein
##tance
ying
prevalence
assists
signed
##vable
breakup
choking
prominently
brute
multimedia
##nae
subfunction
##grade
shivers
testify
alison
kildare
caveats
[unused168]
georg
pearce
##lash
management
1907
tires
technological
renovated
##rita
dawned
shelters
bonnie
##cock
stone
trick
wax
awful
tradeoff
chun
schmidt
barracks
basins
unreasonable
ineffective
coordinate
##pheus
##strom
tunic
safely
loretta
researched
##zie
airmen
[unused753]
uefa
lex
##nya
shortage
jenny
akbar
interlude
splinter
##ication
dynasty
alfred
metropolitan
scheduled
garments
sinatra
##lined
bavaria
jacob
queensland
programmed
optimized
hayden
woodlands
night
burger
anglican
headlines
heavy
gmina
communities
rhodes
whole
hillside
##ega
##hurst
##ign
fulfilling
chopped
c2
##outs
kata
turnover
muscles
prune
bursting
196
twinned
disappearance
lanka
incurred
croft
erasmus
languages
moshe
arrogance
flexure
shuffling
[unused863]
discipline
protestant
expanded
taxonomic
conscription
prohibiting
1923
haired
##nted
##oya
superman
transports
ha
##ifies
##oll
upon
slowly
drawn
famed
melinda
organizational
13.6
masjid
wages
gateway
##tucket
##werk
lethal
athletes
anniversary
outfit
jaenelle
entertaining
waltz
[unused827]
ink
##39
ranking
faulty
##jun
integrity
##oc
[unused150]
versatile
previous
uniforms
une
canons
underemphasized
sera
se
practitioners
bethel
charleston
sacks
##ife
##dberg
mayfair
lively
startling
facing
union
unlimited
mw
##ision
kt
paramount
wishing
ashok
##num
albion
darius
##rians
##mot
mt
stationkeeping
highlighting
comfortably
virtual
overview
maxi
officially
regimes
assignment
plots
##dt
alternating
laughed
preacher
straightforward
u.s.c
anyway
sporting
wherever
bellevue
belief
ivanov
citizen
fey
confidently
##mine
creek
worcestershire
regular
det
ins
potent
##20
frenzy
##abad
##vision
leonard
championed
finite
##ron
saving
[unused787]
faulkner
wheat
solve
stocked
blanchard
[unused913]
incentives
benjamin
teen
##oca
uncles
kingsley
forcibly
##fish
reasons
giorgio
scrambled
italiana
transcribed
damned
urged
precise
hari
[unused103]
##hd
##uka
drill
##eux
sauce
[unused478]
wrexham
rbis
delegation
##tails
rapper
acid
tipperary
henderson
operate
accord
proposals
pillow
connectors
manning
monastery
stepping
barked
explosive
##achal
bore
inflation
##tty
plans
;
providence
bishop
##rill
##istic
freshly
vertically
shocks
##uke
arboretum
[unused864]
amount
digger
holt
tolkien
never
##nine
colombian
neutral
cruel
pitchfork
layout
puddle
success
authorities
regional
kumar
##dman
narayan
ambitious
human-system
fips
thermally
##vate
wander
1885
papa
owner
##aur
ou
persistent
##tology
touch
reflected
v6
iphone
marquez
slabs
[unused983]
1792
punished
cyrillic
##lver
##ndt
conduct
uncertainties
sinister
42
ken
booth
weird
1828
60
enables
##jon
forested
abrams
execution
##crest
##inski
##onte
[unused93]
recruiting
instrumentation
piedmont
[unused559]
lacrosse
musicians
##wer
##de
##nde
dil
##ook
outcomes
battleship
1
[unused392]
##ssed
collapsing
tumbling
alcoholic
perch
670
consume
hank
[unused843]
flute
tolerated
shipped
uranium
these
gravel
bois
reunite
kate
cousins
codified
hugging
rams
rashid
retirement
[unused757]
don
##ester
parish
sibling
dartmouth
camps
eye
vol
peabody
survives
helmet
##oder
bars
##kot
##park
undertaken
cook
progressed
##obe
thought
##my
encryption
hail
mia
swung
escort
autumn
ajax
unincorporated
iec
commencing
retention
lair
f
[unused695]
joins
##tma
managing
##izes
varies
##ility
need
uneasy
seminar
47th
yawned
kim
subcontinent
e
reviewed
charles
[unused372]
hostage
##ush
precautions
tool
exercise
realistic
##dez
1800
erected
activation
cobb
6.0
vault
darting
tx
##fi
idea
phasing
comfort
0.01
[unused138]
##roids
[unused940]
horizon
noun
##good
1803
bandwidth
congress
[unused861]
ashe
zambia
freeflying
thump
incur
smelled
rising
sui
boom
run
consecrated
##ille
pushing
string
repetitive
garth
simultaneously
##dana
blogs
dentist
[unused277]
intellectual
philharmonic
newly
antioch
peer
bayern
stressed
scored
infrastructure
##cies
tessa
contend
daemon
marguerite
##cake
##arians
depressed
5.4.2
dissertation
cao
115
seminole
##ho
salad
whales
marta
tifier
slave
payloads
carmel
##ba
eternal
##itaire
pride
centimetres
clashed
discussions
##idge
[unused98]
resisted
complaints
##su
proportional
1838
marcelo
sigh
nagar
algerian
gala
ceylon
demographics
guatemala
##rag
backup
key
##tron
industry
disregard
during
[unused675]
##jah
couldn
barred
surfing
anthologies
cherry
281
refugee
favored
bengali
expanse
idols
ari
650
periodically
them
greer
onward
series
scientific
assessments
unfinished
vinyl
##fighting
rotational
##lga
sorts
crucial
fritz
##ulla
names
##nig
0.8
amps
slamming
initiate
179
criticality
tully
margins
viola
haydn
77
minimizing
piers
workout
lynne
scary
crashed
ird
senses
lakshmi
turns
deg
##nism
cervical
thereof
expulsion
rationales
manually
beverly
quit
terrible
indus
rugged
priests
cork
kiran
##bon
##mina
bessie
devin
uhf
outline
health
suicidal
[unused157]
##parts
huron
##raz
herbs
citations
departed
supplemented
pilgrims
costa
##cede
awkward
ito
inefficient
christians
audits
designsthat
98
ebert
traditional
taxpayer
astonished
[unused473]
cases
temper
container
prism
katz
hermann
yoon
1806
##ind
massey
##mut
##hian
janata
renamed
##uss
disciplinary
royals
shadows
backed
basal
posting
kyoto
simi
messaging
municipalities
chill
##personal
challenging
brady
1920s
proportionality
disclose
sava
outlet
nomenclature
ventured
believers
##tosis
buckingham
dazed
80s
disciplined
purported
chat
##tropical
sachs
morley
##bury
nationalism
##essed
##bedo
##ms
peaked
mask
hardness
approval
##w
nile
avalon
allocation
goal
lacks
##upt
hampson
liam
##rgo
schumacher
insurance
##ggs
activity
scale
##eries
##wife
nur
6.2.2
galicia
connectivity
destiny
303
ambition
pathology
##lists
##backs
vehicles
franchise
towns
scoop
phillips
priority
joanne
theories
preaching
vows
shadowed
pianos
##weig
raiding
scalp
blazers
##heads
camel
ft
closet
digit
##rith
nino
nectar
garrett
oswald
rows
rafe
[unused832]
professional
##mental
[unused390]
ers
##cule
gloria
vile
##enbach
illustrated
##ffin
aground
malaysian
arctic
streamlining
advanced
picks
willis
focus
wr
braced
deposited
cornerback
msc
tugs
rancho
linguistics
4,000
rearview
shudder
warlock
ce
##can
##ished
##page
tell
marlborough
surprises
[unused210]
annoying
potion
courtney
##vine
musically
sim
##tyle
acquisitions
also
salvage
01
grand
predominant
seal
dylan
dot
jon
knoxville
portuguese
appointment
orchestrated
clay
sen
##idad
populating
emission
modelling
discus
boyle
pioneering
bracing
arrive
enhancement
sob
abd
auburn
ry
graduates
bon
reversal
##lika
bidirectional
sins
deals
slam
##actic
resonance
deacon
gasoline
compiled
massachusetts
flank
enslaved
dragged
publications
timeless
publishing
preston
karin
choked
##cable
trrs
##flow
naval
owners
cows
164
algeria
latching
##kam
allowance
parenting
submit
nadu
suitable
pages
retired
hs
eleven
helens
starr
dancers
formative
seattle
freezing
selections
deborah
massage
##lling
beaten
volta
notation
generals
toilet
networking
[unused642]
altered
##rsk
align
bulging
deputies
##za
##stis
kansas
##nut
##bolic
fte
clenched
45
analytically
institutions
##uch
rifles
stockings
pl
bram
batsman
opportunity
lemon
##dust
marrying
##hner
##turn
playable
labour
operation
1802
3422
##urgent
developers
1890s
ask
expenses
doncaster
radcliffe
enterprises
westward
clench
jaguar
[unused655]
macleod
igor
theologian
indianapolis
precluded
housekeeper
mix
wage
films
exceed
awareness
##emann
raise
bleeding
ribbon
hitter
wasp
snowy
##chu
embassy
summoned
jurisdictions
constraint
##bino
retrieve
biting
g.
##ulu
crazed
leighton
plucked
treacherous
i.e.
yao
conclude
##nist
portals
##till
surprise
school
revolver
musicals
##tet
sidekick
amp
iii
venus
learn
chromosomes
thessaloniki
offended
dropping
fulbright
calabria
stained
ge
infancy
[unused582]
hitch
660
##uddin
dress
58
[unused349]
factor
##hus
detonated
nigeria
brooding
##tre
boxer
plato
mansions
philanthropy
anyone
trained
improved
##sible
7123.1
0200
fragility
ringing
conference
[unused425]
federico
[unused608]
karma
unwieldy
trunks
##osing
staples
ocl
tions
gestures
turbines
communication
cleared
improves
into
roland
wolff
vincent
[unused202]
magazine
christ
painted
kuala
dire
heiress
layer
paint
##nan
corinne
##gman
##hly
brewer
deal
##tite
inherent
ethiopia
oakley
inheritance
mommy
beth
##uary
flames
##elia
##nery
modernism
seychelles
honours
[unused380]
chancel
strings
await
[unused572]
##tto
umpire
asq
deficit
##ronia
playhouse
scarlet
fielder
reborn
volvo
deliverables
leger
woo
##ta
alumni
delle
mag
unreleased
eden
##vitt
symmetry
wrists
anthropology
ramsey
269
attitude
sum
jeanne
orange
groan
descriptive
beautiful
fastened
ling
does
manor
inclination
abandoned
1855
stinging
midi
enzymes
ruled
peterson
gm
alzheimer
kettle
dracula
compositions
##ful
##ku
william
reynolds
##pie
##ett
ut
6.3.2
anal
heading
alvaro
spirited
crook
##hur
onset
jolted
writ
interception
[unused786]
poisonous
byu
inference
antiquities
tags
onetime
hawaiian
inventory
##enia
valet
##lts
customi
sensation
##co
##rr
guidance
islanders
ecological
##dly
##df
6.7.2.4
bored
modification
renowned
aztec
santo
asserted
traceable
##sari
typing
##cliffe
tours
flush
19
[unused406]
nights
[unused503]
fast
##tees
bane
57
portions
157
##ient
2014
poured
##lization
terrain
concentrating
ripley
cambridgeshire
sales
directorial
[unused846]
46th
##scribe
##physics
##arns
summary
##nen
doyle
##bians
discernible
directives
tackled
##4
rake
vowels
succeed
690
##lete
motorsport
kristin
##band
##uki
[unused160]
values
frowns
twenty
##opers
migrant
##ivated
[UNK]
shoved
andre
ponder
mc
devlin
rebecca
collisions
ego
rr
lived
negotiation
implicated
harriet
arterial
federal
teachers
powerpoint
##ckman
512
dependencies
1863
1957
eggs
torino
upgraded
matching
##phones
eine
trauma
[unused715]
960
verified
pea
helicopters
fable
account
sailors
hangar
concession
introduction
threatened
##tina
vt
deleted
bowman
kt_min
proficient
planck
##ped
##ant
gangs
##oides
caretaker
dodge
immature
kolkata
longstanding
bowling
90s
##tic
tribe
fatter
prevailing
attaining
helplessly
livery
matter
powerless
[unused10]
facilitating
naga
adds
lorenzo
##bach
delivery
knight
sions
option
##tica
caressed
##train
sought
leaflets
stalled
staffing
beard
##buch
hurts
slipped
instructing
jewels
inactive
keynes
temptation
lingered
disturb
copa
##ichi
dread
erskine
disregarded
##rani
bengals
forcing
stirling
##lette
charter
closeness
southernmost
substitute
dali
listeners
licensing
##zzi
hanna
willow
flowed
##eles
aiming
schools
[unused353]
day
alberto
##sable
canonical
##neck
toplevel
mcintosh
rms
michel
##ker
darkening
rigor
sow
teachings
eddy
1712
boy
illustrating
winston
esq
reopened
securities
overland
grove
novelist
mora
northampton
##ff
starting
potatoes
266
weaponry
dayton
##meo
derive
prosperous
##yp
oskar
spun
tugged
agents
rowe
pc
turbulence
volatile
waitress
tow
synthesizer
hezbollah
repository
agustin
[unused881]
##idon
##ulum
##fted
##nd
gypsy
son
psychiatry
glued
seeker
mechanic
amenities
gran
occurred
##gon
otis
capita
ah
cookie
luca
##onic
prem
ceased
tends
pronounced
poppy
harsh
appendix
tatum
tierney
particulate
psalm
corvette
##jo
knelt
##hang
1958
##iidae
directive
comrades
sportsman
carmine
rene
graduate
deputy
repeatable
money
divorce
##relli
##ows
sticky
##cology
egyptians
donetsk
courses
uncertainty..
##ake
johnny
swelling
dissem
##dam
brewery
1730
ev
renault
[unused928]
stimulation
##dh
almost
##sop
unchanging
grantees
responsive
nouns
1830
##uno
##rigues
alternatively
croatian
speedway
diagnostic
jackets
sabbath
connecticut
edge
elton
plus
bismarck
##uel
##tier
reassured
compromise
cattle
levi
synthesizers
bayou
theodor
therapist
pass
late
##asurable
rest
lukas
tian
armor
restrained
##vert
fort
additional
memoir
beverages
heavier
|
invertebrates
dunn
clap
screened
##henko
1759
jen
##bahn
carp
trar
##sons
##wl
nigerian
outnumbered
maple
eligibility
india
goats
activities
spoon
[unused854]
par
sling
bien
##aring
##rrard
friction
binding
joyah
protocols
apologies
##chase
vowel
desperately
pasadena
tres
##gara
##ml
stayed
connects
goods
##owe
##athan
butter
##jack
tome
serpent
costly
menace
forty
highlight
stalin
genre
[unused804]
feldman
##ition
jody
celebrations
##gl
##birds
##mouth
psychic
whisky
alternate
dodau
dates
555
[unused808]
presents
interval
eng
cocky
pip
[unused266]
##rized
reminder
##eon
defamation
##rion
weakening
[unused12]
anarchy
##oir
##oning
ping
yorkshire
dyed
##has
skeletons
outgassing
scar
commodore
events
greases
specialty
latvian
regards
saturated
swayed
clue
##dos
dial
rc
pepsi
1719
ottawa
gogh
##feng
temperance
doc
##dier
bundle
capsule
robotic
129
[unused508]
deaf
##bot
cliff
hodges
coherent
edo
denis
virgin
inuit
extraordinary
saxony
##inian
jack
marriott
location
##aha
##ivation
quantifying
objections
1707
##gni
ele
16
confession
##vent
iceland
viceroy
marylebone
cyclereview
ordering
cams
dissolution
mirrors
disposal
centrally
concerns
offenses
mcgill
##rial
##bant
efficiently
shi
##tooth
turkey
malayalam
torah
##dents
bonding
##llar
anymore
burns
racial
charity
betty
##oteric
universidad
recently
surplus
nutrition
1833
##pit
billions
drake
##orth
deci
person
calmly
provoked
choi
treating
toro
alies
functioning
quarterfinal
##edd
successfully
handicapped
technologist
deadly
beijing
clone
transverse
brushing
due
rocking
will
its
134
bother
circulation
measured
##hin
arresting
goethe
planet
xi
twilight
transient
icon
collegiate
post-launch
grassy
##cc
necessity
heraldic
burgundy
sikh
suits
cooking
rumours
implant
my
stability
dodgers
##eves
maintainability
installed
1683
classes
[unused560]
cutting
[unused261]
##mber
courage
fighting
patterns
touchdown
retain
fronted
nan
hearth
sardinia
##itha
##aldi
##aina
##sz
elevators
##recht
##pts
baronetcy
downward
lowry
[unused756]
consultation
cd
purchases
sienna
ballot
corpse
##ris
uncredited
johann
prevent
extent
##vb
87
classical
scores
##at
1911
tainted
gesture
poorer
sequenced
flourish
[unused63]
locating
##tao
lightly
pope
arches
##0
##wani
reapers
sheds
mk
danish
mp3
joker
mechanism
##words
stewart
transmitter
chin
hell
lingering
repaired
symposium
##cie
##bian
##media
blacks
##oop
alaska
rocket
##giving
##tama
44
edwards
##rella
dissipated
mate
katie
##evic
encoded
emmy
twitched
mdaa
kristen
ramon
from
endings
harald
couplings
fm
compulsion
adjunct
##nica
cover
destroy
freedoms
insignificant
shovel
pentagon
##nin
coats
naomi
##nified
##see
plight
replaced
feng
ledge
amore
administratively
hobbs
involvement
outlawed
##im
hadley
gerard
reservations
myanmar
quasi
pained
programs
adventure
jozef
theaters
sb
##oma
movement
saxon
1994
bourgeois
aquino
moran
owing
ferns
physicist
##kki
[unused667]
embarrassment
rub
narrowing
dimly
suggestion
denotes
extrapolations
[unused818]
flourished
rouge
manny
humanitarian
compatibility
eyed
toad
[unused514]
savanna
artist
regimental
prefecture
borrowing
[unused167]
rework
jonas
aberdeen
triumph
original
decorate
enabling
##bro
minded
inspections
cement
##app
slack
amnesia
objected
whaling
gershwin
banda
squat
selector
negative
plastics
prevention
sad
integ
polished
prevalent
wrestler
bohemian
dairy
flooding
##nda
##nis
taxon
ahmed
##ropriation
##urbed
border
answering
calculation
valerie
crewe
grasses
##ii
derek
cube
##powering
devised
[unused910]
kong
##craft
scenic
instructions
jin
pressured
##ipe
70s
opposed
pleistocene
reforms
administrations
traces
##entation
pamela
airplane
roaming
##hopper
witnessing
tracts
##a
aw
reorbited
diffraction
scandinavian
##ivism
intercepted
recipes
contributing
guid
nonsense
dodaf
helps
masks
nucleus
rabbis
mit
afc
tasha
vegetation
adhered
##row
routed
##arus
celebrities
russian
##athlon
attachment
presbyterian
requirement.
pcas
telecommunication
mccoy
sabotage
##finger
equipment
liang
##tum
writers
heights
poets
parishes
##mbling
masterpiece
banged
mixture
##ept
ska
##rdi
firm
gavin
##post
du
##ner
##ly
##name
##dee
unavailable
##tee
roadside
consultants
dioceses
requestor
soloist
increasingly
[unused322]
##rien
praised
baccalaureate
privileged
brunette
1851
clergy
dino
supplies
heavyweight
establishments
107
outing
56th
##vances
favoured
vomiting
9.1
kazan
blaze
##hip
peshawar
1908
clarence
twitching
fury
kicked
surged
##iko
ts
beings
[unused987]
gimbal
sniffed
##some
indigo
165
troopers
##tov
between
cardiovascular
chosen
##logical
10th
1887
naia
[unused471]
[unused300]
crisp
tertiary
covenant
reaction
katrina
montevideo
numb
loyola
[unused477]
##apple
grunted
unsuitable
barker
839
##osa
stopping
[unused152]
blog
mobilization
dan
proves
cushion
wound
invite
declined
computers
normandy
##jee
brightly
however
regardless
tc
##drop
mumbai
[unused9]
arguing
wildlife
##old
roast
travelled
electronic
traditionally
##raphic
noises
recognize
centimeters
carrot
##lou
economically
substance
consciousness
for
huntsville
fca
combine
tech
[unused485]
marketplace
duff
stephane
retrospective
lancaster
buddhism
paddy
jumps
larkin
lia
immunity
mathematics
cabin
huddersfield
sacred
##er
glen
deliberate
watershed
interpreting
oslo
collingwood
plausible
gerhard
ought
]
drms
##iled
cheese
convenient
surviving
[unused594]
[unused166]
lexie
angled
realise
##miento
literature
td
catches
attached
##roud
serve
srds
spawned
atp
cornerstones
subspecies
##uses
##nam
authored
sydney
loud
classed
physical
##np
1870s
##pad
h.2
forever
task
##iaceae
hoisted
##sin
treasure
##hong
archangel
alec
##eptive
##nea
bilbao
carrie
suffer
##ested
##wny
vulnerability
##kata
provided
wasn
assembling
laterally
brewing
papacy
sunshine
battista
288
sharif
jumped
apollo
plan
##ssion
dutch
bedrock
cape
astounding
commitments
bearded
feb
##vil
pebbles
##nson
tufts
[unused298]
recruits
egyptian
salty
grief
pocket
salsa
mission
flynn
confined
concluded
montreal
##ball
coma
replies
col
##firm
1962
##by
religious
dtic
stepfather
cicero
trondheim
endurance
och
actions
tnt
havilland
quantification
surprised
matched
hades
##vera
filmfare
brink
[unused634]
quay
restructuring
mccartney
##monium
##dome
strikeouts
imagine
stylistic
residence
censorship
scout
zenith
dried
temperature
justice
1977
profession
hedges
79
engineers
moe
lev
terminates
204
##42
reflects
##combe
##otted
fisher
manuel
announced
[unused146]
dani
becker
field
solidify
##atal
##+
epsilon
critics
implemented/integrated
flicking
criticizing
benson
religions
vest
possessive
continues
pursuit
friendships
redding
adapters
guides
2016
ensuring
spark
undoubtedly
just
goldstein
bikini
carry
dripping
panzer
240
orphans
vital
flatly
##broken
periphery
landfill
satellite
gaulle
mysteriously
stocks
modify
[unused69]
vigorous
straight
includes
enclosure
adams
##aa
##bbs
goodwin
1781
azimuthal
downloads
##usia
griffin
##yl
ely
183
devotion
##haling
ashland
debugging
giant
kota
oxide
exit
##lative
playoffs
included
[unused170]
riff
18
fia
hunting
duffy
##nzo
terminated
restaurant
jeremy
##care
rammed
preached
5.3.2.5
warsaw
precious
observers
frequency
##rwin
##orum
generations
sada
featherweight
forward
##hog
taxpayers
roll
lew
[unused47]
##ize
slippage
mythical
tan
shri
encounters
iwg
marilyn
sentenced
germany
mobile
##jer
tribal
fiji
hymns
translators
castrol
##ul
acoustics
##let
1662
brother
factual
attends
adjoining
junta
balfour
anti
##hg
shrinking
invention
##lings
him
berg
6.5.2
awkwardly
broken
doubled
emptied
sylvester
conjecture
convenience
publicly
##ond
pasta
carla
sneak
concerto
various
reunification
##mium
peacefully
opinion
loomed
lashed
dorset
prioritizes
harold
deserted
##kon
ambiguity
verona
lined
sighs
##chester
orphaned
[unused888]
lal
powers
##dae
##!
correctional
bodo
vietnamese
ached
writes
##iously
dealt
##uth
alfa
wooden
carrier
##caster
currents
commander
psycho
thrive
enfield
accessory
terminology
rejoin
##dies
bending
##puram
lucius
##sch
##ia
promote
epithet
##zzled
silesian
digitizing
##illo
stereo
undefined
1965
sizes
surreal
##ari
ss
kari
deeply
bucharest
##gh
spear
assumes
ley
segunda
carter
handel
twenty20
##ment
exclude
farm
##phine
arcade
##typical
guests
##hiff
payton
encompassed
sons
##sley
induction
##osomal
purchase
[unused745]
sentai
exposition
macmillan
causal
6th
magnificent
skylar
utter
c.
madden
inadequate
undertaking
patent
transport
concomitant
magnesium
reinstated
tragic
disgrace
cocoa
chemistry
0
records
willed
astros
ecliptic
surfaced
consumed
waive
##tze
usd
toy
defended
invented
elisa
darren
low
marlins
[unused295]
ascertains
bees
psychological
lookout
.
shirts
totaled
synod
##fle
orthographic
woodrow
##raction
sometimes
schemes
charred
lullaby
##uta
al
stuck
redundant
stemmed
##vey
landscaping
##nsed
returned
[unused733]
1723
look
rose
##fide
collier
university
##nte
##ved
##otto
dialed
[unused914]
clipped
background
[unused176]
showcasing
##bel
##gned
constitution
##reus
crime
scrutiny
##tra
rushing
creaked
individually
flaps
rein
memorials
##ailing
distracting
zones
media
indigenous
pairing
csb
budgeted
washing
spokesperson
##cca
peak
crows
zach
had
hamlet
ile
iberian
ancestry
sweeping
indiana
museo
##ciful
##gny
rises
prospective
relegated
attack
sixteenth
paragraph
dumb
sergey
breakout
overseeing
##gler
authentication
##rlin
documented
projection
booklet
presidents
boca
##osh
##ppe
carefully
picket
##fields
sequential
kathryn
amusement
hinted
heavily
jimmy
textbooks
gymnasium
steep
##kla
sex
shuddering
1942
jaime
words
firmly
battled
ict
worthy
monarchy
patrons
kingston
english
nz
242
bishops
spawn
requires
luce
##yam
bot
bowing
physics
condor
1747
rid
##dou
forth
##hoe
visits
##crow
unpopular
replace
linden
screening
angry
##hs
elliptic
yemen
nikola
patches
coldly
distinct
##stown
accelerate
stared
grandma
ratios
relaxation
##tched
footballers
[unused611]
bengal
##color
morton
##ease
248
geraldine
limitations
pest
cmo
brands
ending
ios
dime
pri
[unused194]
archery
psychotic
hines
sure
homosexual
##nch
millions
[unused250]
reduce
##dale
nottinghamshire
##kow
proton
wwe
##ngen
elves
sinn
undergoing
##wari
dealer
durga
react
upcoming
[unused178]
amulet
identifying
[unused726]
placing
sunni
itar
##quay
utilize
testers
##yeh
submission
moscow
[unused351]
demolished
152
##wd
reactor
##lok
255
##uous
##tonic
bypass
mississippi
##andra
[unused855]
harmonica
stefano
[unused232]
tissue
assaulted
boasted
ufo
##rek
cypress
244
##bre
topological
supporting
##dong
predatory
squadrons
##lan
diffractive
renewable
gabon
admiral
flicked
[unused141]
##yst
##ks
##note
##dda
florence
crow
##aceae
presidential
poke
emotionally
saharan
alpha
berkshire
losing
robotics
deteriorating
##hta
##ages
nearly
infor
europe
chips
remarried
statesman
burrows
skins
gael
lately
wavy
##encia
doing
sang
##ulin
##ulsive
breakaway
##cuit
teaches
figures
deportation
toxin
reevaluate
gore
orient
otter
##von
man
quezon
needed
haynes
sundays
unpredictable
1886
##holz
191
##hae
##tlan
[unused972]
wo
concentrate
formulate
indirect
[PAD]
practice
boise
micah
biochemistry
annals
anatolia
##dhar
conclusion
warmth
newt
bordeaux
croatia
herzegovina
[unused72]
orchid
mendoza
creole
297
aarhus
classroom
advancements
researcher
##ip
##44
ceded
trusted
slayer
strung
craving
##isman
spend
##hum
followed
##chment
wave
organisations
pitted
presented
[unused440]
additive
span
skills
contribute
##bial
dim
communications
[unused163]
townland
gestapo
##nsor
[unused542]
super
tribune
##>
289
[unused111]
greeted
meg
witness
wandering
##ount
mac
trophy
musee
hungry
helmut
leading
1955
1.2
tasks
convoys
sheng
manual
##zation
trickle
ike
minimally
breadboard
uptown
indians
enduring
owl
returning
##tle
tracy
victoria
lucille
##hane
und
##osta
vocal
corn
funeral
intermediate
julius
woodstock
firefighter
hearted
dogs
bolsheviks
governorate
gradually
seating
holdings
davies
##ucible
anna
[unused749]
hardening
cumulative
ineligible
chris
1956
appliances
indoor
1919
gunfire
active
shopping
##han
criminal
randolph
##ply
assistant
shelly
suez
rca
blessings
##play
3000
emphasizing
##tur
invitational
1859
authority
nonstop
allowances
##dates
operability
delivered
favour
licking
liquids
turtles
burke
pga
knob
rented
broadcasters
unclassified
swimmers
idol
judged
ing
unclear
id
mirza
[unused878]
[unused837]
columbus
sixth
##if
notions
forefront
possession
stirred
##rization
colored
consulate
sworn
inspiration
single
wehrmacht
##jia
enthusiasm
##rford
##sur
terrorism
gregorian
overshadowed
vane
bu
streaks
1896
hilton
177
amanda
##vo
remodeled
myth
tomorrow
milk
yvonne
completing
fontaine
peasant
[unused466]
academics
guerra
targets
additions
close
plotting
[unused509]
intersect
atkinson
pregnant
spanned
##icio
reagan
preferred
derived
watched
pristine
softness
kay
arduous
cerambycidae
differed
troy
##hya
disgusting
tuna
capacities
[unused231]
##llet
appreciated
icao
besides
1932
nationality
elected
##tr
handheld
stains
win
ominous
lamb
discomfort
delaware
cost-capped
mcnamara
##chemical
willard
walsh
##escu
estate
##ef
vidal
standing
remotely
funds
essential
leah
fan
sicily
bids
fairies
sucking
182.2
mata
cubes
wicked
188
3.5
sharks
pictorial
hormone
complied
aux
longevity
middle
cavalry
preliminary
mitigating
facto
blinked
thursday
rupert
preparations
coke
##inating
##ney
mixed
france
exposing
##swick
shutdown
bottles
slater
hostel
matured
murdering
motionless
##jad
schedules
pivot
mobility
mis
contained
bjp
267
containers
innocence
##rim
accusations
oasis
##uating
agencies
captive
##ction
emil
illusion
##station
sockets
orlando
ford
communism
aquitaine
[unused115]
##mps
flavor
helium
[unused238]
205
sit
marked
freyja
##omic
##ter
instead
obtained
forum
##pants
dinosaurs
##cated
in-house
pastoral
goals
appointments
presenters
sooner
heads
safe
bared
sufficiently
fein
capability
accomplished
borough
##hari
headings
almond
##ais
registered
faa
sweater
207
tobias
outfits
feat
printed
secession
eyes
##ther
gearhead
reuse
violate
##pee
214
##enter
martyr
jeremiah
shaded
referenced
letterman
few
organic
pet
##eurs
jump
[unused326]
mused
galerie
drafts
serie
lahore
yahoo
half
catfish
streak
neolithic
her
divided
[unused570]
swing
##arian
breakdown
grinding
movies
canadians
exceeds
maggie
piper
##inations
##asa
corresponded
ecumenical
canadiens
lydia
gladstone
remainder
consequent
gerald
tales
transponder
##ologies
spines
stalks
takes
lighter
gust
thematic
158
agreed-to
ignited
conductors
[unused510]
redesignated
##rg
##graphy
winter
##etic
1709
wrinkled
pathway
hounds
amor
swim
prowess
calcutta
slovakia
##poulos
punjab
races
ion
mika
chained
century
reverse
##ud
virgil
attractions
cartridge
##rail
murderer
##cats
inhabited
1947
drying
263
meyrick
trophies
##ert
turnbull
husband
skinner
##he
sequel
##adia
athlete
1913
extremely
adjust
machines
##ige
exponential
arbitration
##rral
analyses
mccormick
floral
max
sigma
propeller
interoperate
accountant
##sl
jun
[unused954]
risen
spends
swath
##had
appreciation
reasonably
1843
shaun
westwood
lobe
earle
tattoos
1900s
robber
brigham
900
##culture
danzig
dwelling
weather
dutiful
since
dominion
aroma
npd
[unused252]
furthermore
##tton
ministerial
hotspur
magnetic
liturgy
pinning
confronted
harding
##sti
1852
livestock
slick
kimball
relations
148.5
algebraic
swings
##lka
parsons
ankara
natural
restrict
barlow
780
[unused859]
[unused80]
inherited
##hema
dirk
sultan
##ises
boat
supplier
clint
gifford
finland
shawn
impressions
13
[unused683]
erupt
##gur
bookstore
##oise
head
##eded
brows
obliged
lacey
##llon
[unused133]
tsar
consistent
##orted
1659
dem
jpl
ravi
ottomans
screamed
progresses
forgiving
somali
chesapeake
##open
##lais
instructors
tactical
perceived
eastern
##b
grade
urdu
siegel
uruguayan
domestically
indochina
mage
ground-based
director
superb
leash
consultant
titles
playground
[unused848]
perception
distributor
incorporating
sweetie
1952
##lor
gonzalez
sherman
golfer
beach
residual
uments
##sar
remy
congressional
npr
whispering
##paper
adored
occupation
##uram
aim
determination
wheeling
xu
1921
chartered
mick
uc
kinematic
gems
##rut
vase
dragoons
dialogue
[unused376]
font
##chin
famous
rules
split
biennial
##cliff
##rooms
spartan
higher-level
[unused553]
governed
weasel
sudbury
shoots
iterations
mission-critical
firing
electro
literally
exchange
downhill
dared
tonga
jesse
ebony
drummer
rays
##erland
chemotherapy
campaigns
imply
worker
##cus
flashes
miriam
subjected
floppy
surround
orbiter
flowers
moment
briefcase
coveted
##aging
joachim
rush
digitally
wrapped
ranging
responsiveness
multicultural
episodes
barrio
##udeau
whispered
announces
e.g.
jaipur
##nction
accents
combination
patti
fukuoka
diversity
contamination
market
##cks
comprise
springs
nyc
carmen
obligatory
defendable
require
##linson
1968
slowed
##load
rear
1869
consistency
##beck
##bilities
table
endorsed
limitation
jealousy
##pping
portal
curves
[unused203]
lean
fears
monthly
scrap
##kyu
keystone
rides
bae
tar
##gly
##ptic
fiber
swimmer
##lett
alam
yen
monopoly
generally
weir
assesses
reprise
planting
contemplating
uncoiling
##schen
[unused35]
mum
enemy
sonora
oral
dent
handing
potential
gratitude
ruben
paradox
##hesive
kyushu
happy
suggesting
young
##ayo
digital
doctorate
kindergarten
##tsk
humor
abnormal
millionaire
parliament
bounced
humidity
##oed
sophisticated
##ery
##phate
recycling
duncan
##lane
hirsch
eyelids
evie
dying
elmer
baba
##kel
appealing
tipping
greenfield
long-range
childish
midway
legion
##ceae
lcd
##stadt
horseshoe
cafeteria
sho
bra
meters
##ni
malabar
versa
autobiography
architects
locations
middleton
##nnis
canton
adjutant
bid
unlock
timelines
##kov
##proof
##phs
contracting
##lch
publicity
catalog
##sio
conformance
joaquin
excitedly
sears
imposing
orbiting
commando
bonfire
crm
agriculture
evacuation
throwing
##eim
tolerancing
285
##vy
upfront
christina
comedies
outskirts
ported
computationally
##uate
[unused949]
##sha
##48
rent
decisioncut
saratoga
cies
##clops
contacted
devil
generalized
##beau
nakamura
inspector
rapids
[unused615]
59
face
floats
##aton
spies
[unused603]
fooled
##manship
foul
[unused852]
##ucci
disturbed
##eers
functional
toward
coil
yue
bce
uninhabited
[unused769]
##aran
##wa
musica
spat
##ioms
##rose
orioles
congratulations
witnesses
blackwell
notes
hinduism
claim
wince
collided
relics
packages
legislators
bewildered
pumping
jam
##yler
bucks
carriages
##acion
##urai
wiring
realms
nun
freeman
sides
mounts
##pher
reachable
rite
marriage
dept
[unused714]
dsn
##nberg
rfa
coating
installations
basalt
nos
##itic
twigs
maximal
investigating
finals
wembley
receptions
commercial
listened
concerned
protagonists
scrambling
ljubljana
##eau
spit
birthday
hosting
refugees
voivodeship
topics
foot
##is
theresa
horizontally
##cise
samuel
issuedescribe
promotions
ivan
[unused76]
ac
##om
belmont
wendy
appellate
232
1737
[unused187]
##dad
##ier
efficacy
patriots
neighbour
fight
coping
dances
[unused251]
inorganic
nods
##nard
removal
##gas
instinctively
high
ostensibly
[unused321]
doomed
brightness
nationalists
term
disposed
g.4
##ars
1982
mainstream
inflicted
libby
route
bassett
upheld
##aver
attach
premise
struggles
divides
zoning
[unused480]
##ound
quad
het
cares
dump
claudia
##girl
churning
##ili
cats
##inated
aaron
cooperate
lai
schoolhouse
rocky
qualities
hc
charlton
denies
skaters
choral
##lm
sulfur
roman
anhalt
##tructing
conspiracy
anything
mounting
60s
quarterfinals
[unused0]
compass
generated
deadline
fabricated
chronic
balance
posterior
raion
##tek
lois
shelter
summarizes
knife
doorbell
##as
##ivity
ensuing
detectors
rabbit
cheering
##ytic
occupations
##hope
##gli
ranks
genera
accusing
luna
[unused367]
##vian
mango
rufus
kathleen
bangladeshi
transformed
##nk
doris
toni
tamara
ritchie
seth
capitals
resin
winners
dr.
requesters
complained
1.3
##dote
populations
crank
petitioned
##aman
chamber
[unused450]
screwing
ad
yamamoto
warming
elena
administer
nape
kite
revolves
1661
dieter
gaps
team
oman
defines
eric
numbered
abandonment
nationalities
##inho
fuscous
admired
sliced
squeezing
adjective
modelled
skater
volleyball
reacted
##gu
1540
kdrs
blast
vintage
advisory
hypothetical
tna
montenegrin
straighten
mexican
nesting
universally
nl
dice
ngo
checkout
1721
boardwalk
distributed
heather
stalk
pounding
##ler
suspect
mcc
ag
ryu
[unused964]
intermolecular
battlefield
smiley
padma
##olin
[unused502]
finish
momma
hazards
verifying
copper
##?
claw
like
storing
2a
companion
tt
melee
premiered
bruised
earthquakes
##ic
casualties
alderman
furious
##ono
barney
seasoned
larsen
heri
variability
evacuated
##ence
tesla
divinity
logan
hit
[unused971]
annually
deliberately
[unused593]
760
criterion
accommodate
sol
sgt
az
response
topic
horne
hunched
johnston
tung
validate
raoul
honorable
combo
municipality
jurassic
subdivided
intel
##ington
lilith
##him
evaluating
human-centered
good
parcels
##tify
anticipating
lionel
gardner
implementing
##ending
measurements
##mm
[unused780]
yugoslav
##tling
apply
1630
republished
##ques
vacuum
shares
tps
curled
tanned
visibility
tabitha
survival
methodist
replay
##rous
[unused19]
planning
colonies
recursion
harvard
neptune
long
lung
aurora
residents
expertise
sophia
blinds
##ike
quicker
##raphy
expectation.
1964
##ants
##tania
blonde
##rnik
137
refine
##bly
##izations
probable
dodged
initiative
##optera
skyla
##sto
claudio
nadir
soto
##lynn
philipp
atv
industrial
##nese
##graphic
decide
mysore
focuses
bart
##cytes
fallback
##ean
taipei
[unused828]
engaging
nobody
collision
sainte
douglass
hiroshima
maintain
livingston
##jin
mocking
##grants
##hale
restricted
[unused404]
rumbling
mathematician
clements
parlor
##erated
san
markers
connections
negotiating
faith
robots
case
fragmentations
cas
subfamily
prepare
escorted
lrr
rudy
profit
##car
picasso
longtime
##hawks
extract
firmware
hoffmann
variously
heal
##ues
duval
pca
a
##int
isil
keen
imagining
croydon
16th
helen
elimination
##ophone
1727
sampson
outputs
uncover
##washed
spears
glove
metals
chichester
ultraviolet
pronunciation
investing
drought
kaufman
ali
##dson
##een
angela
creature
pavilion
adapted
operator
reverted
##rine
radicals
lurched
faintly
satan
procurement
culminating
uniting
khz
urging
buddha
squad
possible
drinks
##gical
adventures
supportability
dedicated
##lation
crash
horatio
seneca
avoids
study
quieter
##py
unfamiliar
injured
warrington
##ico
affairs
6000
brow
crimean
waivers
##ag
omar
195
unsafe
tex
[unused419]
knives
flanking
addresses
reefs
0.2
credibly
dive
judiciary
info
sighed
jace
##bies
shortfall
[unused544]
crashes
##ise
yard
##anga
[unused721]
hindi
yang
coilable
ono
##spar
spearheaded
administrative
darrell
##urst
##wise
duke
beyonce
stanford
##leg
##kia
##utation
bifurcate
[unused402]
##dre
yorker
threats
lynch
climbs
subsistence
##hawk
##bil
pinned
ance
withdraw
humiliated
decor
godfather
repulsed
##ggy
dun
mainz
##rant
philosopher
brno
polk
meetings
hugs
coincidence
##lord
anchor
sl
hardin
sustainment
freak
##cased
110
frankfurt
inn
jammed
##rger
##lland
phi
being
concealed
willy
fiona
##tana
comedian
mermaid
mold
##ilation
realize
inception
8715.6
battery
validated
brasil
krakow
1632
##otype
piano
##holm
mischievous
speeds
1940s
1840
soils
boundaries
##ctus
paranoia
code-to
pg
britannia
perceptions
themselves
conspicuous
ass
##uro
deposition
[unused623]
availabilities
##urized
##yi
grammar
hem
##esses
catastrophe
spoiled
knocked
traceability
mysteries
vin
980
[unused884]
shades
aristocracy
flour
quartermaster
marge
##ffs
mills
detachment
##woman
invincible
##vale
114
alexia
subcontractors
##tar
audiences
protein
xml
##mage
fused
fai
van
[unused482]
580
boxers
wolverhampton
row
vs
townsville
piece
estonian
hunter
##eki
360
fought
##sd
bison
crushing
11th
density
vow
##pina
##mei
through
persecution
pyrenees
##9
semisynchronous
nasty
conglomerate
prologue
why
##dded
##rdy
sheltered
##nce
##wy
dion
chilled
vernon
presenting
##ism
intact
whereabouts
fragile
accept
opposite
kernel
claudius
developing
intervals
abdominal
scripts
benny
denying
##opped
democrats
historic
##comb
[unused937]
secondly
suited
reputation
toyota
rivalry
neck
20,000
[unused748]
entry
mainly
##lden
staten
relying
heinz
mcgee
hers
##ern
dumped
centralized
##odies
provide
##fication
overburdening
sustain
##gun
pile
leone
metadata
>
accuracies
mature
panicked
flagship
restriction
conflicting
climb
chicago
mans
behalf
modifying
seas
bertrand
39
esther
traverse
months
nodis
cancellations
prominence
amherst
length
eaten
signalling
platinum
##gues
representation
brisbane
liver
neighbours
affluent
tempted
cathy
worshipped
rating
larvae
[unused638]
sovereignty
##issa
constituent
237
##patient
ma
mr
lac
strives
shaping
194
##zawa
##dley
[unused87]
nipples
ecosystems
scraped
certain
patty
taken
als
expansive
geometrical
pollard
geo
marches
bray
mentally
grams
hissing
uprising
anatomical
residences
instinct
otto
##a1
contaminated
aerodynamic
seized
reference
sue
file
[unused329]
consuming
dublin
lytical
##mon
[unused447]
hopped
infection
overseen
##mates
foil
majority
sar
entail
440
harley
assignees
##roid
angola
ab
affects
##ger
##nl
benefits
tenderly
necessarily
powder
guidelines
kazakhstan
expansion
add
braking
##cating
publication
##arm
signaled
deserts
blanche
lining
enroll
spoil
disability
18th
tau
triplets
raphael
bomber
luton
gaze
mabel
became
dorsey
princely
##cco
ballads
novi
conrad
battered
[unused337]
representations
[unused672]
botanical
lowe
denomination
acids
infrastructures
spirit
ivy
cry
real
##lena
mast
savings
hush
styling
witty
worm
milestones
dealing
backbone
contributors
musician
##mobile
##nais
.3
transit
hum
itf
elk
bowled
cow
##sh
ryder
sociological
notified
surgery
dame
churchill
remove
towel
justine
francais
defective
##mere
compares
##ctum
730
rumors
wide
##ving
creators
spying
wye
houses
##uil
blinded
##eving
renewal
shale
slate
sam
transformers
threat
enterprise
colleague
activism
propellers
spotted
barbecue
``
##tea
spoke
planets
pact
patients
bangkok
flare
mor
behind
females
##urance
distinctions
marcos
bastion
[unused558]
rudder
##mble
inward
ezekiel
[unused710]
grossing
malfunctions
##ji
bergen
sparse
enemies
cowboys
tolerant
an
160
##bia
1866
amar
erebidae
yields
engravings
going
johannesburg
##eses
##vez
philippine
shipbuilding
sirens
##tick
##tani
prayers
permanently
v
relay
##bots
distorted
sis
center
lastly
audience
cozy
art
maturing
##rma
accountants
[unused665]
##ony
traitor
flipped
jd
##hair
bruises
[unused305]
cortex
olds
eyelashes
lane
conquest
zhang
crimea
coffin
##uron
##gold
time-sensitive
fluxes
as9100
interpret
##nia
tanya
villages
drone
[unused927]
gift
commenced
mathematical
[unused137]
dusseldorf
[unused518]
swaying
gallantry
invisible
thyroid
2nd
##quel
##posed
##skaya
[unused83]
##rai
sudden
1929
paralympics
unsuccessful
partnership
ames
indoors
flags
miraculous
engineer
torre
##type
notional
detective
exploited
unconstitutional
stench
[unused860]
region
##wyn
startled
redwood
groove
pseudo
felt
han
dolores
starters
expected
##nikov
##polis
##9th
deprived
flourishing
welcome
mao
keepers
misty
controllable
offices
##yas
##lay
nickelodeon
punish
halves
##amen
retailer
bernardino
238
delaying
interstage
nair
##thing
amadeus
bjorn
norwich
tai
mateo
contenders
west
francis
asphalt
##shida
blocked
artwork
strewn
cortes
##cao
submissions
prescribes
slept
##ws
##vance
croix
o
[unused29]
quantify
diversion
lawrence
amotor
liberals
leaking
##rito
condemn
lend
banner
faced
spherical
instances
payne
##dio
cerr
laps
turrets
plot
gorman
##vet
enchanted
[unused616]
album
residential
unarmed
carnival
debating
relative
diamond
overrun
[unused552]
advocated
opposing
rodeo
tinged
cheated
authorizes
augusto
##zon
sei
##hen
##wives
dex
lifecycle
fancy
tiffany
miocene
marginless
directorates
armenian
meadows
conic
1841
##rle
adolph
misidentified
[unused711]
escape
abundant
eagle
conveying
##len
cadet
##lab
clary
reliefs
stalls
methodologies
##hul
mandarin
nocturnal
assaults
exercises
[unused439]
meanings
claws
candidacy
thereby
gujarati
prostitute
helmets
##vita
medial
iihf
spell
nobles
vice
ahmedabad
biomass
educate
##formed
sidney
pistols
##egorical
teach
##tension
505
hello
bisexual
kelley
##oia
pan
[unused161]
273
cloudy
questionable
tory
[unused842]
576
accomplish
##ands
comprehend
attendants
##onia
ve
lucky
discouraged
adjustability
credible
playstation
youtube
##iction
ghost
##ds
baby
intimately
pluto
peanut
fang
effectively
optic
drm
commune
overseas
##ryl
seed
envoy
persia
ludwig
[unused809]
sleeve
##ines
machine
jingle
wales
metal
##ort
##holes
##yre
lissa
assume
hate
##bold
baths
gracie
worthless
##haven
##anza
hands
reassigned
##40
[unused527]
households
natalia
##meter
jarrett
##gal
publicized
pollution
sobbing
stiffened
ination
safer
assemblies
##cci
uganda
skepticism
##sed
regulators
morphology
##oth
##rva
splash
[unused738]
[unused22]
administration
sf
fell
hawk
beaufort
reconciled
shapes
worried
kw
divert
immigrants
pushes
sullivan
initiated
unnoticed
utilizing
caress
##erry
yarn
talmud
blizzard
##icles
laid
game
##thus
constellation
vocals
see
parachute
ares
##earing
iterative
birds
##ring
jasmine
principality
mcbride
locomotives
albuquerque
##uve
healthy
ciudad
##43
brit
et
physiological
cheerleading
sma
convert
vision
political
sep
##eli
##roved
##cian
pioneer
baron
plenty
isabel
came
sits
devastation
52
##sight
perturbations
basin
rabbi
smoking
telegraph
davenport
stormy
##ase
exchequer
tyrant
cutler
##git
lily
[unused198]
siberia
parade
elections
anastasia
maximus
##ive
babylon
mediation
cryogenic
castles
[unused129]
##tically
whereas
crossings
preface
filing
citadel
fruition
raining
tourism
statues
##nished
phrases
identities
rebuild
##twined
##pole
##sation
detection
shifter
4000
planner
mentoring
disbelief
overlooked
##uising
skating
susceptible
collaborated
differentiated
insulation
convent
##ayan
1910
fr
uppsala
superiority
smes
password
zion
[unused371]
winner
##bana
liable
lucifer
beak
transcript
southwestern
wings
tibetan
newest
##ality
soaring
specification
friedrich
circle
enough
nonetheless
surrounded
holds
##esis
silently
wimbledon
phones
mandy
ensemble
nazis
1853
[unused547]
##lated
appear
overwhelmed
tko
buck
rul
precursor
ri
distinguished
##cel
celia
twain
secop
mythology
910
##ator
sip
demetrius
##pura
counterpart
refinery
muslim
spread
wishes
retrieval
jae
mops
lobes
##tish
jean
##ol
123
armature
vibration
likewise
450
##^
##wg
parted
colors
evil
coupling
challenges
lowest
diverted
proliferation
managers
silence
andreas
cannon
stigma
[unused767]
prized
[unused725]
galactic
##8th
oosem
cfa
confederate
receptionist
incense
portsmouth
studies
merchant
swift
mangrove
modulation
dispatch
sion
flicker
avalanche
168
rivers
paxton
##sia
##hani
##ire
recommended
108
##na
hosted
bender
organizations
hydraulic
authoritarian
[unused139]
paralysis
unofficial
coroner
##ishment
heartbeat
existence
flanders
[unused235]
larson
labor
bays
pursuits
running
##erted
ibn
1611
their
simulation
4.4.2.1
sofia
rana
[unused506]
hygiene
sergio
braycote
champs
##uing
barrett
trolley
depictions
christianity
catalogs
politician
buffer
slavery
cale
fresh
rbi
conferred
comparable
slaughter
widening
graham
emi
causes
substantive
[unused108]
asserting
yoo
##lz
##nr
loren
zulu
accessible
reflections
popular
joy
favourite
antiquity
customization
doctrine
riches
mortally
regina
marjorie
mimic
researching
handed
debuting
finds
bronx
##ough
insulin
shortstop
173
eliminated
arkansas
fda
hoses
##dice
##tted
conditional
##ister
##hole
wizards
faerie
sand
contractors
help
predecessor
foods
bei
arjun
improvements
novice
student
##cius
ymca
ps
flexible
coined
charlemagne
hostility
##islaus
arabia
70
1644
loyalists
zagreb
dispute
rovers
whig
##nington
spare
wary
liberal
[unused205]
dimension
##guard
ga
conserved
##ments
disagreement
stores
##kara
accession
greet
##glass
eom
anton
lip
##gizing
##ensis
pir
1714
columns
garland
blindness
[unused413]
vega
1780
but
forbid
marines
attendant
##chen
herd
exchanges
fatima
onto
manuals
gloves
filed
sherwood
##ecin
futuristic
1895
idle
posse
##onal
[unused800]
##section
liberty
##space
inspecting
cobalt
##ah
sino
crawley
loneliness
keplerian
weaver
##lining
##ison
conservative
exception
latitudes
nj
dietrich
dorian
##ull
##ressed
fairfield
##dya
sources
cameroon
deported
perished
1685
duct
colony
admissions
dough
program/
##otho
##wala
priorities
telecom
palatine
prof
gotten
shortest
thicker
consult
hears
carlisle
ensure
bloody
comply
##cute
vacation
##lson
2.1-1
1857
minority
calhoun
essex
b1
82
latin
noaa
olympus
##write
vie
nicholas
guerrero
##rissa
tallest
odyssey
sensitivity
cigar
##itarian
##uration
headmaster
raw
novgorod
uncle
##encies
festivities
intuitive
society
sahib
results
exhaustion
##aro
newspaper
##imum
linkage
enrique
operatic
##fect
asked
##etz
buses
exemplifies
baltic
mace
superintendent
scraping
agreeing
##rand
##nts
category
stamford
fundamental
chooses
preceded
conducted
##word
emblem
weddings
##kai
blackish
##ash
railing
prasad
competes
syed
[unused399]
stillness
types
[unused899]
pacific
maharashtra
jagged
nikolai
fern
pointedly
[unused114]
[unused255]
troops
vera
##lim
breath
repairing
shepard
fueled
closer
distributors
deluxe
[unused363]
rani
##inkles
crush
##ij
[unused77]
zoe
unfit
121
lumpur
yell
en
scottish
complications
seymour
needle
grabs
norton
##bet
scoped
##ooped
mane
misses
build-to
internationally
urgency
restatement
countless
lawyers
rap
depiction
##ciency
casinos
irene
explode
##lovic
mono
##tiv
tripoli
demons
##rmed
malvern
305
upstate
celine
fearless
00pm
pasha
rhymes
frequent
ira
##wang
[unused212]
incorrectly
arabs
1767
tattoo
fundraiser
##pers
abbreviation
cheered
curse
brittany
1927
strode
ether
rivera
affiliation
graphic
healthcare
sandra
m2
soup
ness
corp
##lten
##sal
expressive
effortlessly
nebula
statue
ukraine
lamar
ours
proposition
exist
converse
[unused677]
out
##ist
##ea
couch
might
29
##lets
##bis
meaningless
terri
wainwright
wes
downing
##ald
twin
watching
recursively
result
utility
demographic
propaganda
transporter
heaving
##sonic
carr
buyer
mecca
exact
miranda
such
begun
##ay
singled
backyard
[unused180]
[unused437]
underestimated
math
beside
balanced
glossary
##hetic
flirting
[unused525]
##weiler
prayer
main
shelby
veronica
uniformly
supply
tanzania
lou
sneaking
calvin
introductory
candidate
coordinates
rockwell
stealing
sprung
synth
derives
linux
laying
beaumont
nerve
##min
##rigue
closes
mortals
tails
ruined
monkey
##rran
computation
kickoff
45th
##rid
ancestor
cadets
corporal
wonders
garner
strengthen
harden
minimum
and/or
units
imported
pike
oscar
popcorn
mortem
searing
##ylus
prentice
whenever
cisco
rees
vine
monster
contrary
gradual
extensions
italy
##35
##bek
saline
fascinating
buckinghamshire
dinah
searching
1660
ceramic
notable
drainage
adolf
maldives
##tors
piston
roles
pathetic
sunny
nottingham
ninth
prakash
irwin
##si
ramps
haggard
sturdy
##urian
premio
primitive
331
##balls
composing
##oku
##oric
convinces
mohawk
snail
##yna
atlantis
hydra
35
preceding
##ental
pill
karel
amidst
illuminating
rourke
1898
liner
alain
ex
parallels
banjo
firms
busted
swedish
weaker
##lty
advantage
signal
autonomous/autonomy
[unused120]
bidding
ufc
subscale
sequels
kingdoms
cheney
tyrone
london
sprint
machined
earthquake
sheldon
sample
fashionable
##loaded
mcgraw
##ka
##ate
##lish
showcase
##elled
executing
##connected
unprecedented
1826
wilson
1854
experiencing
bangladesh
amber
mitch
drilled
tempo
virginity
systems
sealing
##tham
##qual
acquisition
fusion
avatar
von
tara
112
hitting
hack
##xing
##sm
grape
escaped
celebrates
##sby
timbers
tube
court
proponents
fuel
nen.nasa
buzzed
##6
bun
theoretically
coleman
##zyn
##hesion
she
ems
##rik
santana
participants
governments
harlan
holes
fujian
object
jackie
##breaker
##dara
lunar
##ups
guinea
##ent
1928
explored
nr
leaping
duets
participating
[unused897]
srr
parrot
lorraine
biomedical
maverick
nationals
##inator
curator
arsenal
phosphate
choir
291
affect
volume
##ske
ordinary
dioxide
copies
zhu
600
##rman
headwaters
casts
alejandro
hornets
flint
##rite
##pu
##lity
inmate
##jali
horse
fallon
rights
himalayan
measure
hideous
projectile
##ev
roundabout
contestants
##ids
mirrored
severn
##gan
##breakers
disposition
##zing
##ap
vi
waterford
lifetime
exchanged
characters
##hwa
##sily
secretariat
##oor
proclamation
genevieve
usual
anchorage
unsatisfactory
marching
limo
vishnu
position
processed
fcc
shrines
acute
##rov
ll
processors
creativity
##ities
beetle
seven
300
264
graphics
collarbone
[unused31]
shaggy
altar
##ej
matt
borders
fission
right
##due
##try
ingrid
marion
greta
damien
##cloth
matthew
renovations
246
infinitesimal
cords
sparkle
mock-ups
##keepers
yellowstone
##s
loki
heel
lets
tenure
##ller
##ob
1878
journal
proudly
bail
eugen
brilliance
fuck
forerunner
rosewood
[
general
formatted
##nology
falsely
guard
formalized
grasping
caution
##eva
##tya
blaming
##thi
aided
##sef
settlement
gripping
contentious
geology
25th
##ria
divisional
##ffer
lough
##ca
equinoxes
mcguire
yanking
meaning
flanagan
##boats
##shaw
acquainted
attempt
ambient
dixie
36th
range
##rrell
[unused118]
smug
49ers
##matic
deciduous
needs
bolivar
b
illegal
external
peng
viral
kit
georgetown
glover
cots
##mers
decca
gantt
##ique
power
rites
scorer
remind
##vocation
mikey
niger
##rel
cody
##grass
##atus
##rned
liberalism
pixel
##hal
consolidation
programmatic
inland
maud
rosary
##ew
singapore
floating
fulfil
humanist
##izer
stare
##onale
debbie
clones
richardson
applied
haryana
analysis
##nstein
pickering
abstract
visibly
cheyenne
gentlemen
amir
323
##logist
juice
solemnly
##hore
stroked
inter
pegasus
4th
plug
##dicated
##hc
sandals
bizarre
##fer
logistical
outside
inches
telescopes
methodology
cruisers
athens
aa
baden
including
veto
austen
3.6
weekend
liga
hertz
uct
tony
radars
1845
trier
##sies
##li
groundwater
passengers
slice
familiar
wnba
evaluates
[unused624]
##gb
winked
summarize
##plane
properties
gulp
web
trusses
foothills
privatization
indication
craftsman
activate
muted
clinical
versailles
contract
bertie
frogs
madison
sentencing
link
[unused918]
##sir
college
silas
##ario
##zuka
##tara
recommends
##wee
humming
operating
franks
##wall
bytes
##art
ape
headache
persuasion
##itative
hub
tabulate
braves
absorb
templar
jays
sparked
deafening
burma
thirties
##olt
commentators
israeli
gods
massif
faded
minnesota
auguste
deserved
[unused499]
##tung
vanish
##stock
requirements/expectations
singer
##etta
##ver
nailed
hamish
##.
smooth
orchestral
intra
concessions
tel
##heater
imperial
admiration
lid
nrhp
bodily
lawsuit
valve
hidalgo
shiver
trojan
technically
##ttle
pauses
wool
pathogen
emerson
sustaining
leroy
##gen
linda
zealand
rehab
waving
parramatta
ballroom
##marks
unusual
##ema
contingencies
baroness
##sdale
shortlisted
spreads
reyes
[unused333]
##hold
demos
hesitantly
bridget
simon
transmission
##vd
rich
moose
fortunately
324
##do
heartland
cap
interactive
imperceptibly
armenians
japanese
morale
unbearable
zoom
labourers
1791
chaplin
durham
flight/launch
furnished
richer
letter
moritz
grateful
judging
completeness
baldwin
petitions
274
tastes
august
manhattan
anxiety
ph
footage
tomato
quantitative
maclean
##ago
brains
casino
##glia
constitutional
filly
mostly
mars
moffat
torture
beckett
1949
televised
##oo
metric
brightened
1981
dismay
##dini
graded
##osphere
skip
defend
aesthetics
custody
barony
successes
monsieur
universite
huey
sometime
working
sexes
##fus
franklin
##coe
230
##tom
##tsa
entirely
nestled
[unused923]
findings
ich
peas
argus
hayes
medicine
handwriting
##ados
hearts
##edo
##gami
sustainability
192
palo
harmed
interested
plane
benedict
astronomers
##yal
accommodated
ruiz
primetime
329
moaning
##icz
cushions
##jected
lifestyle
powell
thru
##rard
intersects
notwithstanding
throw
musik
coefficient
falkland
pol
kissing
##mar
nonhuman
forged
standardized
outlook
ernesto
##chan
##bell
privilege
miami
[unused653]
149
[unused46]
freshwater
3
[unused79]
conforms
silent
##tium
##dle
##rch
lebanon
torment
eponymous
subtropical
radio
ui
linebacker
[unused177]
realm
17
starved
`
qualifications
exter
funded
thoroughly
ornaments
##iting
mann
louis
misconduct
performances
##orn
brunei
stronghold
1897
locks
imposes
mummy
doin
inferno
bugs
schuster
unbroken
viability
##edance
##hel
##dis
subsystem
##ee
emotions
koch
1904
sisters
inside
write
thrown
messed
35th
##iens
iridium
wielding
##zzling
##ductive
navarre
lubrication
processing
prosecuted
fading
ign
vomit
sunday
swimming
catching
##chel
adopting
banco
violin
shriek
7120.4
trooper
zheng
22
topmost
##verted
shoreline
nose
trademark
underside
sector
indicating
[unused368]
##mund
prizes
differs
declaring
jana
most
those
walled
##rac
nationally
##sel
barefoot
hitchcock
discrete
snatch
mets
pub
everyday
suffolk
reg
[unused495]
herman
everest
nagasaki
##and
extensibility
differ
turret
pollen
cutter
knot
##uber
liberties
acknowledging
coupled
pleasure
innate
translucent
resurrection
6.7
##jar
wing
vii
venture
featuring
[unused894]
cass
resented
mcpherson
renovation
clothing
##itude
470
unanimously
stowed
##ede
congregations
coincide
guildford
ragged
arizona
##shu
meade
reconcile
chiang
ven
adrenaline
waterfall
elite
farming
appeals
inflated
##bour
##arth
##dion
slovenian
annabelle
caller
##ghan
juliette
##no
americas
takahashi
usb
prefer
##hein
##ott
spinal
butler
try
manned
[unused941]
beginnings
buffet
wedge
ix
caine
penguins
damp
awards
dal
ceq
fried
franz
adequately
undergoes
sky
chasing
kamen
##athi
fielding
calderon
borrowed
road
terminals
sway
##acious
shouldered
latitude
yours
##rent
elemental
budget
device
marsh
##elo
umbrella
dysfunction
younger
gabriel
##cellular
orion
hamas
404
mister
##boro
melodic
##"
categorization
motives
hose
violins
bravery
invest
[unused492]
cruz
canteen
gills
curses
incline
mirror
23
referendum
plaintiffs
operative
transitioned
basilica
##dner
died
hinges
daylight
pencil
restricting
commission
garage
transactions
reigning
numerous
resup
##nidae
1831
orchards
showdown
immediately
pupils
swamps
nawab
u
davy
peers
namely
215
craig
bose
career
maximizes
shift
programming
preferences
rescue
##yo
scenes
arranging
mckenna
penny
##layer
pour
microwave
assisted
realised
usher
exciting
gma
floor
vary
professionals
lincolnshire
mcdowell
matters
halifax
multinational
##lah
christophe
mates
##nath
republics
brant
boeing
accelerated
##bation
##zza
##erus
##sat
behaviors
marcel
##ination
imaginary
objects
1920
affected
wildcats
iona
predictable
corrugated
confuse
informing
##swell
xavier
##rites
attain
dodag
patiently
twisting
puff
##nee
partly
unstable
busiest
passage
promoters
mongolian
meets
criticisms
##52
jade
ds
sanctioned
31st
ow
dickens
[unused134]
##mur
hits
horticultural
rex
assurance
pak
increase
larc
[unused282]
1796
hangul
nevada
audi
##dhi
##enne
motors
stifled
condo
mixes
stole
*
[unused760]
joseph
mohammed
1640
simpler
carpathian
wilbur
concise
gables
##itor
##tis
demonstrate
greed
believes
cousin
hoists
scully
architectures
hess
125
participated
##plicity
##org
cycle
29th
##vis
2.6
hitl
cleavage
serial
lutheran
##ways
fitted
marshes
##vat
story
brendan
offs
obviously
henley
seemingly
banging
##gs
australian
waiver
1864
tissues
generates
dmitry
committee
applicants
accep
irritating
cradle
weary
aires
sites
##marine
compiling
performers
sweetly
mendes
##nton
nfc
##qa
kill
[unused904]
##lusion
elements
royale
[unused789]
curated
fishery
devon
rain
cbc
entries
scientology
##glers
eels
##mt
everton
congressman
soundtracks
##mori
restroom
anatomy
[unused720]
positioning
andes
apart
thing
hood
fjord
salts
1930s
sublime
##mbs
pace
annexed
environmental
##dor
jew
217
chorale
rte
defendant
artworks
##ausen
gps
halt
verde
smashwords
sock
artillery
rink
gardener
1891
drag
mx
[unused947]
aviv
peeked
pamphlet
carriage
smack
algorithmic
alias
satisfactory
thug
biography
warriors
speechless
started
curate
winding
saints
casey
redevelopment
prelaunch
longitude
experimental
##stle
awarded
fluids
##cit
mountainous
hold
[unused619]
hunan
##flight
steiner
receiving
napier
siblings
##hiro
economist
duchess
tubular
1807
hundred
gu
##lellan
minors
##cher
descent
motifs
rf
martina
headlights
unpublished
wry
redundancy
unfavorable
##tting
antoinette
asian
heinrich
appeared
refrigerator
hamid
punishment
##iso
6.7.2
overall
sparrow
##blood
judy
views
warren
##adt
squadron
grassroots
cara
bouquet
daily
evolve
distraught
mccann
heresy
vendors
kingdom
facial
hove
mode
sandy
historian
dubois
kick
closing
hardware/software
verifications
esa
pause
manchester
1784
[unused145]
##abia
wichita
malice
imports
reno
systematic
modules
madrid
spirituality
snakes
airs
sbs
sec
failure
thee
alternately
##sius
novelty
forrest
productively
diet
dialect
ignorant
ourselves
raising
##tort
##mis
gunslinger
##ising
ji
333
##cera
opted
autism
interconnected.1
appel.nasa.gov
lighting
admire
simulator
cullen
spence
jake
##ogen
fen
tuning
elliptical
[unused119]
[unused742]
bartholomew
##olic
bourbon
april
lower
waved
sylvie
gilles
indian
##ooping
relevant
ferries
oppose
##mony
##usions
highness
2011
solicitation
cessna
[unused961]
##ater
vogue
staring
warmly
soprano
nw
299
vaughn
ownership
menacing
solar
slab
recognizing
asahi
[unused36]
ambrose
##rer
[unused716]
globally
overs
axel
padres
lovely
##mith
##rang
spain
constants
garde
##ury
reviews
ordination
stitches
dillon
cougars
markup
prd
26th
contracts
evade
74
sensible
cadence
door
criminals
##gating
##iated
##trics
believer
##ph
##vir
multiplication
planted
elbows
glacier
objectivity
mariano
campbell
graders
tore
##with
##aged
islander
##cken
impediment
[unused193]
noting
snatched
ref
##bm
joshua
technician
sid
convex
##dge
fifties
##therapy
##escence
lander
secondary
christy
generic
acres
##cing
spy
rectory
ara
synthesized
portray
a2
roof
homosexuality
bacterial
hourly
granddaughter
offset
1790
sbu
vampire
##asian
##edge
747
##able
drop
away
throttle
smells
programme
hunters
supermarkets
kai
##z
haifa
tr
technicians
superstructure
expo
sakura
stiction
mike
prompted
sobbed
oppression
##biology
corpses
frustrated
##acies
papyrus
bud
##unt
[unused882]
loyalty
worldwide
##-
reclamation
barbie
myra
1879
cuthbert
37
albrecht
prioritization
##tenberg
gaius
styled
popularly
smuggling
##codes
support.
##cam
clit
workplace
chase
tas
specialists
continuously
heating
##ar
[unused34]
cnn
intake
dollar
thomson
acton
wisdom
ptolemy
##tore
thanksgiving
recognized
aria
##sco
micrometeoroids
laurence
activists
source
benches
permits
knit
defendants
##oids
##iling
get
manitoba
##itors
didn
pra
northeastern
specialization
extracted
perennial
mandatory
palma
##gart
thirteen
azerbaijan
defense
morally
alleging
##lby
airspace
forests
##duk
submarines
hawaii
impress
redeveloped
crises
ceremonial
[unused737]
avoided
rooftop
topical
werewolf
l
gundam
malaga
[unused833]
dundee
bergman
observatory
182
[unused696]
##dev
popping
crusader
lu
protection
##ela
mccall
monarchs
rev
##rop
climate
decline
salisbury
jul
[unused190]
##rling
##age
hang
array
dear
buttons
burst
williamsburg
unity
oversaw
line
stk
precedence
verity
fumble
amour
switzerland
pertinent
earmarks
delivers
1016
earnings
messina
advertisements
musique
mergers
alfredo
adjusting
smackdown
certainty
found
[unused330]
##ere
delegated
abbreviated
[unused116]
##dham
deterioration
great
[unused127]
steal
roses
doug
[unused892]
##litz
dung
trenton
dynamics
jubilee
mon
interrogation
[unused660]
step
prix
executed
##isch
##60
unpacking
siena
##ited
photographic
[unused279]
drunken
productions
knots
##igraphy
99
coincided
[unused91]
vacated
blushing
variant
03
buckled
atheist
composition
##tures
kissed
martha
##ions
drove
jobs
bigger
cocktail
[unused744]
irregularities
despair
stranger
examine
[unused763]
[unused669]
barrier
##rrigan
contrasts
kelvin
coconut
seeds
slade
dat
domino
illusions
1778
encoding
pursue
##gar
insist
domestic
1910s
packed
sounding
same
frowning
adherence
cookies
dt
beasts
[unused234]
pius
tunisian
##gy
knowledgeable
wal
wexford
sunken
organize
whitish
##ling
elgin
occurrence
interwoven
sensing
renewed
frazier
sired
eps
channels
travers
catering
compute
[unused51]
has
##weight
cyclists
della
leftist
dalai
kiev
cubesats
score
polymeric
seo
visionary
tombstone
weightings
cabling
[unused7]
catholic
strapped
water
pool
dustin
advise
create
arcadia
empowered
spawning
decisions
etc.
demonstrated
differentiate
search
##pkins
lasted
##tative
redskins
mueller
##loh
attacks
treasurer
li
##go
dummy
asia
atletico
fledged
[unused989]
agency
bassist
blended
##bn
understood
terminal
johns
polish
ministries
princess
jordanian
categories
processor
zane
vanilla
[unused365]
warfare
##vres
welterweight
subdued
servicemen
eyebrow
sherry
tipped
##fin
wise
addendums
accepts
24th
##tus
##trust
begin
##lence
historians
##ference
prescription
watts
dean
thompson
archived
fake
[unused5]
columbia
explosives
bent
##jk
...
gave
##dc
##tten
equates
351
barren
baselined
##ogical
alsace
farewell
[unused292]
[unused810]
##kali
[unused520]
browne
comical
crore
##tzer
bp
jitter
plate
motioned
prelate
clinging
##hed
reasoned
scala
1736
play
##rp
fra
princeton
shower
dwarfs
bonus
giro
stain
cummings
nave
marko
conjunctions
renaming
ronald
malacca
1770
searches
amalgamated
magician
paraguay
##kti
[unused185]
norms
##pressive
sedimentary
harmony
floated
infant
elisabeth
codex
surveying
dolly
dressing
tears
classrooms
auditorium
fundraising
deny
##baum
landed
##dorff
stretches
singleton
vamps
cool
flutes
##rating
##ero
625
hsi
pad
sykes
stephanie
##hora
occupational
prairie
sac
nightstand
adelaide
justifiable
saskatchewan
lowlands
##rada
rematch
1973
##zman
##fest
##imeters
glided
francs
kitty
sediments
##eros
hole
##nare
##tight
##front
across
informant
preservation
overcome
canberra
eia
lori
##iki
1804
fished
invites
italianate
##aurus
churchyard
##ggle
##raya
firth
vents
exhibit
civilians
##sky
cynthia
exaggerating
issuing
handsome
1728
shave
baku
##pse
colts
airborne
seminary
contribution
naive
##ifolia
normal
number
##utz
overtime
macintosh
concentrates
unanimous
ultrasonically
pleaded
##qi
prevents
missy
ionic
choreographed
recognition
courts
suppress
flyer
smart
[unused571]
reign
backseat
swell
vuelta
respecting
[unused484]
course
restore
kinase
##ave
[unused498]
marco
##scoe
credits
constraining
[unused89]
talked
lunch
smallest
edmond
busy
##rable
tammy
##rier
togo
chap
stowage
thomas
##bbe
##ex
there
##elial
mountain
voice
trimmed
monica
cursed
beatles
again
##hof
pavel
nature
image
confirmation
shin
workable
offers
##umble
saved
rebuilt
quadrant
alive
fetch
righteous
##ym
mckay
85
##ae
cbs
pm
249
##lp
flowchart
venue
stacy
dominic
cretaceous
standards
##rret
worcester
specializing
##oin
wikipedia
supper
retained
psalms
least
gazed
coastline
hackney
farmhouse
shaman
civilized
reject
loyal
television
##bourg
bullock
best
aggregator
membrane
january
disappeared
ceremony
navigation
vastly
sichuan
distinctive
weighed
panic
imam
tilting
enforcement
frigate
bathrooms
trough
tied
constructions
armour
hereafter
##otide
##ols
mandates
employers
##bruck
clifford
##foil
cafes
thrill
[unused244]
postseason
aquatic
taller
##pate
chef
thriving
stockport
gentry
mahmud
##icia
hampstead
salvador
campuses
portion
must
playful
wastewater
brewers
zev
considerable
vibroacoustic
##rift
mosque
cultivated
industrialist
6.7.2.6.2in
conditioning
chant
##abe
libya
dong
prepares
133
suitcase
southampton
erratic
##ecure
##ati
accreditation
receivables
tangible
chevy
doubted
austro
rosen
facilitated
hyperbola
shove
grimsby
[unused23]
portugal
dax
save
##rland
guided
bbc
commercials
designer
anthology
wesley
turks
84
ago
ricardo
mute
french
haitian
inspired
##laze
mutants
richards
crusade
gsfc
horrors
##resses
vitro
philippe
outburst
##aid
lady
anticipation
cdc
314
##ior
##xa
basque
architecture
##dai
qualifiers
seismic
currently
wellington
sank
##nessy
relocated
fluttered
burmese
soloists
enjoyable
fright
mendez
yong
carries
hawke
##gui
globalization
dispersal
292
caledonian
functions
1979
vines
lila
humphrey
expressed
##aj
existed
[unused183]
##tura
irs
34
bets
##emi
matilda
stiffness
##vron
recall
instability
tendencies
existing
##rl
upgrading
[unused815]
cargo
##io
noir
sociologist
specific
seahawks
combined
confirming
himalayas
batting
prediction
airplanes
promenade
##yra
freeze
derelict
despin
##r
caucasian
buddies
cod
charts
##rrie
detached
calming
bias
##xy
incredibly
##falls
consul
sedan
langdon
draper
stale
fries
fabric
miserable
refinements
earning
##icus
##boarding
hellenistic
densely
[unused6]
clandestine
##ght
[unused650]
elephant
applications
##tidae
steady
lucha
infinity
sick
barack
reveal
object-oriented
earthly
nirvana
##person
shrieked
fuselage
rugby
prelude
changes
##eyer
spielberg
plaintiff
##fra
sponsored
immortal
betting
620
franciscan
##mir
replaceable
longerons
##ingdon
racetrack
ritter
chart
tie
enhancements
accompanied
rhineland
hyundai
indira
unitarian
sanity
scents
interrelate
internacional
mbe
coliseum
venom
##pore
nineteen
##ioned
risks
roderick
maturation
im
pine
sensors
renaissance
burr
##zu
morse
poland
bulgaria
brandt
homeless
##tlement
wien
maternity
actively
bump
utilized
##kshi
tremor
coughing
bssc
obituary
rhine
mustard
victorian
amused
coming
##jet
##rti
missionaries
immensely
mission/project
[unused507]
dau
tire
haiti
emperors
tmas
##haus
corey
[unused99]
george
zipper
responding
gibbons
dictatorship
camped
brooklyn
bells
arranger
paz
contrasting
spoken
air
[unused2]
##ello
smeared
merger
fiat
callie
##entes
##nas
##get
upper
[unused538]
pcs
civilian
graph
warship
1930
##rred
gifts
##tua
ru
evelyn
evening
louise
palestine
crunch
exempt
trait
feasibility
correc
vr
archduke
1.1
##ont
brigades
rests
##lyn
practices
code
1717
emerging
continually
favorites
speech
olga
38
shamrock
hug
zoo
portable
serra
sevens
magazines
jenna
aspen
##hn
##per
feasible
eager
thatcher
hwil
graduation
via
realising
bungalow
##iii
hai
oaks
solitude
gardiner
murphy
##hiko
trackable
[unused281]
bosnian
adopt
mahal
plaid
[unused528]
##oga
g
uncovered
provisions
##lateral
ahead
shine
##lysis
##stream
hydro
dynasties
competitions
serene
epidemic
slams
verifies
##iq
scientists
##raph
depth
imagined
honour
##not
ports
hollow
##gration
##mara
##oping
##selle
chevalier
homes
cotton
visualization
##rri
auf
##akes
[unused907]
goddess
##genesis
challenge
mclean
peoples
viva
##haw
sponsors
dreamed
rosie
abroad
leith
mated
6.5
formally
[unused551]
##ctor
lakers
geschichte
evolves
kala
spraying
crystalline
sacked
gabled
juventus
carpets
stacey
autonomy
boating
guys
##tine
lands
unified
normalize
vance
quincy
bryn
boredom
think
alien
rejoined
apprentice
##yana
seventeen
dobson
basically
reissue
fabricate
##nko
harm
chapel
radial
marries
##mbled
hardcore
locking
stranded
[unused790]
explaining
yanked
tier
janice
##iv
booked
trustee
[unused38]
gravitational
registrar
wig
candles
##ifying
shaped
straightened
obe
pissed
##baldi
photographed
1,000
##fine
cite
wakefield
fold
vu
servicing
alba
gaping
banker
lax
##wick
workings
lv
convection
incarcerated
##idal
okinawa
##bai
##rdo
kdp
supplied
trend
eleanor
altering
final
calculated
camden
hannover
crawford
suffix
forbidden
commuted
characteristic
proud
simulators
workshops
##chers
connector
redesign
185
blackburn
wil
##nant
know
ancestors
domenico
rattling
empirically
intend
tab
vamp
averaging
pardon
shadow
sessions
uber
refinement
gathers
1648
##liness
##laus
sin
bobbie
##lth
bermuda
byrd
##mail
atari
##rons
reactive
##ity
##ita
arrest
occasions
loop
mines
##bey
torn
[unused348]
destroyer
tavern
introduced
1665
lakeside
driver
boo
sustained
looked
situated
keyboard
seater
revised
peculiar
striped
experienced
insurgency
additionally
1652
laurent
programmer
6.4
guild
your
patton
superliga
barrel
##nish
sacrifice
##iya
##lide
##loe
cecilia
liberated
##nsen
##how
promotes
any
147
##systems
##lene
##hend
257
customized
determined
lewis
horst
europeans
##ime
jesuits
choreographer
neither
bulldog
i.e
snails
indo
[unused986]
[unused991]
impatience
quietly
displayed
##mies
asylum
jacket
protectorate
[unused943]
##lc
##hampton
##planes
holiday
ba
##ux
##zuki
##ahu
mig
disdain
allow
yo
culminates
callum
hewitt
mod
seaman
hybrids
spacecraft
##vin
fest
population
youthful
scholars
##anal
ratification
barangay
##sr
um
surveyor
brock
interpreter
postal
##inda
isla
119
wavelengths
presentations
persona
reform
aims
hepatitis
2018
titans
##isen
mater
genus
clown
glance
contracted
dolphins
lafayette
woken
displaced
congresses
barber
spreadsheet
php
scrapped
ibrahim
restraints
declared
czechoslovak
huddled
hunger
catastrophic
showered
rock
##sson
stays
twinkle
impromptu
couple
sebastien
grass
leo
##kir
selectively
1844
forks
##inas
secretaries
craved
joyce
cycles
lyman
pains
optimism
heat
alloys
##eller
contractual
accessed
##shed
soap
relevance
netflix
gospel
##ented
neurological
resolved
cebu
advisor
sour
ends
archive
crawled
forbade
weight
squire
goaltender
participation
insulting
envi
societies
estranged
[unused142]
##hic
analytic
xx
##hala
grover
xiao
##ll
##bag
logo
##aer
optically
colder
terminating
mecklenburg
36
gross
violations
baylor
sparing
robb
##ray
major
vanished
dwight
adjustment
flock
pas
hurried
##ons
forget
bless
dividing
iaaf
virus
nemesis
hard
##writing
carroll
##aar
styx
##igen
gesellschaft
dunbar
gem
##bund
oflife
metaphysical
martyrs
##cea
gaza
##gist
surgical
kang
irina
1705
##eus
ssn
deorbited
showcases
manifesto
murmured
nyu
meridian
roe
37th
ferreira
photographs
##under
##iring
##growth
bradley
##ection
encompass
regan
impacts
##keeper
league
stumbling
analytical
##cke
desperate
sliding
caledonia
liechtenstein
cores
devastating
assigned
##ope
bearing
lectures
gaines
novel
tirana
##dog
##bber
rubin
delgado
145
curved
1748
although
morals
aisle
valuation
festival
escapes
mrna
malibu
multiplyalkylated
spd
configuration
thinner
withdrawn
##meric
vivo
cdr
##eve
leonid
elaborate
juno
reminded
augustine
jayne
4.1.2
exactly
##ned
birmingham
drugged
##ellant
thames
coyotes
dennis
appalachian
scanning
##ingly
##et
filthy
mackenzie
argyll
bailey
marry
beast
coat
how
nasa.gov
idiot
soy
jurgen
hu
monkeys
trivial
mort
teddy
acronym
##firmed
trance
remembrance
enraged
gathering
##gr
damage
massacre
aback
##up
commonwealth
sloping
ropes
inhaled
soda
proximity
blake
5.3
internment
gear
escorts
[unused408]
astrid
extrapolated
shrubs
st
customers
slower
of
rv
interior
gears
vocalist
freighter
principles
panchayat
ornamental
adjustments
thorns
irish
mood
marsden
##rip
lot
sucker
##borough
screams
gazes
wives
engine
354
folds
315
256
suppliers
happens
compartments
##lved
wore
pedigree
reverify
floyd
persians
nathaniel
inertial
databases
##yya
contestant
ontario
caring
unconventional
crimson
margin
modaf
perfect
whiskey
belonging
##rain
##rogate
flash
[unused147]
lo
metz
##dermott
shigley
attendance
gentle
skull
horns
tease
##logic
scaling
alike
kyle
dead
infants
flaming
count
staggered
rajasthan
specified
scribe
compression
aftermath
edges
achieving
licence
contested
battalion
invasion
ambitions
tracks
steak
dilapidated
accepting
##oso
groceries
illicit
##ven
payload
revive
bark
##venor
##insky
swami
methyl
##hony
##taff
graves
comprehensive
ram
contact
6.6.2
tao
pupil
##cend
cleric
unconscious
countries
##lding
##cz
chloride
interspersed
clumsy
##iec
stomach
canopy
critically
800
sloan
decision
possibilities
complexion
motorcycles
##kova
obsessed
wen
monetary
flies
##ella
bryant
##iche
interstate
dye
martinique
fashion
leigh
inserted
##ido
green
##coll
directional
forewings
secured
dozen
clues
##tead
weightlifting
anom
sniper
residue
stabbing
plurality
raceway
myspace
voting
##lat
bean
##agger
##skin
##tc
asm
staking
##chee
guillaume
yokohama
assortment
program/project
kiss
slope
##islav
happiness
cycling
stubs
box
restored
cal
nepali
##roi
model
corresponds
appearances
receive
testimony
faso
sacrificed
##25
breeders
township
decreased
sampled
continuity
giggles
[unused242]
coulter
##smith
##vious
councillor
rodents
##lves
hampton
##lev
widely
librarian
hiroshi
167
4.4.2
screen
humane
robustness
traits
concluding
leicestershire
##over
chad
falcon
muttering
captain
[unused871]
timeframes
fatty
entails
extinction
1441.1
dependent
##nden
tbrs
shop
kpps
##bound
##lock
holocaust
laos
illustrates
windshield
episcopal
pun
##gie
mackay
lead
empires
sections
shocked
insult
##icides
constructed
wallet
yd
trips
neighbors
nt
hawks
##lberg
spiked
1645
ras
pending
tiles
worries
nano
fabrics
lacked
steps
##thes
##ns
reorganisation
magdalene
n2
hot
fixture
silvery
fledgling
sprinted
december
pittsburgh
##imus
34th
inmates
1818
limits
intelligible
angus
##urt
[unused110]
##wich
##kowski
slug
tent
party
saturday
hermit
pontiac
##games
heroic
[unused143]
clergyman
he
transporting
refused
pendant
recreated
steering
coins
benz
recalls
oblivion
ferry
##hyllum
founded
size
##long
considers
1832
dew
maze
narrowed
melted
grease
digits
justin
simulated
233
[unused247]
##berto
entrance
lug
phantom
thrusting
bonnet
##pace
browser
materialized
cornered
someplace
sucks
both
arabic
##esian
antibody
resigned
lacking
republicans
##owa
##pala
condemning
intercept
prima
suite
fungi
[unused182]
popped
##yk
charcoal
carver
gold
milne
##tres
hardy
warrior
##bola
mind
##ials
lifetimes
allowed
beech
misleading
geneva
laundering
##sfield
ugly
crocodile
##ette
porsche
277
thighs
viscount
##cured
1890
1.0
fl
suffering
falls
syndicated
finishes
diagnose
villain
gets
##bank
##vsky
caused
rhodesia
[unused220]
exhaust
untitled
manageable
listing
ease
tenth
mammals
corrosion
notices
cardiac
figurative
analysts
calves
analyzed
pinyin
##omi
kidnapped
##city
governance
[unused778]
##ror
rotherham
deficiency
palazzo
syrup
peach
##market
uncoupled
nowhere
bertram
##lia
2.2
##chenko
spectacular
##tas
kiel
highest
##chi
grady
ezio
peter
overruns
alliances
peat
##ssi
lion
mayo
draining
lottery
[unused377]
chaotic
##cina
##avia
things
pianist
holloway
reflective
abbey
spring
destined
railway
[unused455]
annex
intelligent
single-project
melbourne
symmetrical
jansen
jung
compromised
jai
1629
geographically
tap
south
##iom
monterey
newborn
la
intersections
sumatra
three
##ttes
quinlan
lidar
##shore
hms
contempt
creditors
outdoor
##rama
bends
connolly
michigan
icp
mention
cane
handle
solos
overestimate
heaved
misery
##agh
england
##hak
staffed
mentors
promotion
##fies
naming
[unused735]
[unused974]
spacing
printer
steals
disassembly
receiver
grant
evolving
##dia
honored
dictionary
unemployment
shredded
1550
##bed
[unused555]
regrets
nanny
##mounted
sadie
further
3.8
quite
hallmark
interchanges
railroads
istanbul
delighted
loosened
hurry
estates
relatively
##ced
##ops
championships
ruth
consists
several
hats
intervening
oro
refers
nal
angelo
pup
##lica
platforms
[unused626]
juliet
consumers
taxes
moist
goldman
##yman
##bas
mal
$
classmate
##wat
29.9
marketing
costing
oklahoma
##aries
geological
##l
humans
##enary
protecting
dee
[unused889]
[unused599]
##ilde
phasea
locals
obvious
reluctance
genome
ledger
katherine
portrays
dashboard
restrain
analogue
multifactorial
electors
output
##inate
chuckles
ewing
##opus
latch
navarro
##orestation
shakedown
zurich
guerrilla
##hui
[unused3]
jeopardy
ascot
rod
standings
##wave
fairs
warned
acting
##laya
whorls
killed
bay
canals
stil
fu
nat
##isms
##ded
swapped
warner
malaysia
ave
##odon
goddamn
231
verify
[unused980]
##13
millennia
co2
emotion
duck
betray
favors
bum
[unused902]
black
intensive
assassins
encompasses
blank
baseball
ms
jaw
injustice
xander
pia
old
##30
network
example
lansing
educating
codes
polite
resumes
ron
barges
tapestry
onstage
##bol
portico
nina
contributed
specialist
castile
[unused532]
nostrils
endured
putin
latino
melville
approximately
inducted
fellow
##ima
meat
varied
operations
blown
degrees
evidence
phrase
crews
attracts
feet
follows
open
reunion
cloth
##jevic
pms
##erate
cease
falling
jug
valued
blackberry
tion
##ide
nist
og
[unused688]
##iae
visitors
wessex
32
drenched
patrol
fridays
minimal
hackett
dietary
supported
roaring
coughed
streetcar
##owing
declines
gdansk
affiliates
coupe
dual
breast
##sberg
sp
illnesses
cabinets
romanian
##anial
dictator
explosion
spiral
chennai
[unused820]
rift
kaiser
##athing
coca
racist
home
ao
[unused736]
boxing
wolfe
promising
ne
financing
fortifications
soyuz
##ja
galilee
xii
conviction
extinct
insanity
fitch
brownish
livelihood
billy
rfp
bulk
##dal
sabre
cerise
obeyed
##arty
credibility
softer
amended
maia
recorded
expression
capt
ccsds
by
newcomer
gains
##pop
reiterated
root
strategy
destructive
academies
remained
subsets
##;
demi
dungeons
prank
sadler
fighter
mantle
blackout
coe
astor
##din
vaguely
peerage
##oles
taught
diablo
reich
preventing
261
soldier
fullback
osborn
lim
huffed
outweigh
ideas
dc
putting
##rney
britney
[unused880]
ejected
beamed
kg
bracket
formation
##h
armstrong
##kes
stove
##ct
recursive
hicks
can
omaha
mesopotamia
[unused267]
intensity
blackmail
##ajan
stalking
assimilation
dinner
weimar
##pod
grenade
nent
##bain
41st
structure.
maj
##eger
##uet
seals
##minate
eternity
motions
persuaded
v8
1814
allocated
grumbled
burnley
lakes
routledge
1847
olympic
glare
impetus
executives
returns
connection
unemployed
genesis
regency
stunning
fielding/deployment
ks
regain
elegant
emergence
customs
##ided
whitman
severed
knocking
groaned
##ibar
soc
manifest
baha
sargent
theatre
scotch
wiping
workload
unambiguous
triangular
berkeley
nikita
yerevan
volley
noble
##chon
airlines
disperse
xp
foliage
nice
haas
sergei
romano
##ffa
ripple
ti
1622
romani
##ry
cayman
[unused590]
obstacles
pod
gubernatorial
curving
issn
drawers
##pio
pins
visions
nowadays
jihad
47
[unused955]
partitioned
renew
zodiacal
##mack
##mana
##vina
polled
adrian
peyton
[unused968]
##court
295
unsigned
dangling
severe
##km
1944
##ratic
nausea
basel
##gel
[unused585]
##founded
endemic
breaths
##lowe
nominee
##bery
investors
costumes
##ls
eduard
dvd
frs
bounty
tehran
jaya
burn
byron
nash
##mans
subcommittee
markus
athletic
hammond
icc
insofar
##version
tpm
brazilian
clarke
[unused633]
increases
venetian
illustrious
rotting
charismatic
5.8
clive
thinks
attend
hydroelectric
shelves
somalia
vhs
goodwill
packets
gloom
shady
shoe
probability
sabrina
beloved
fisherman
tomas
incumbent
conscience
nicaragua
kidnapping
tuned
squealed
preseason
welded
fingers
executive
##lights
1731
catalogue
##itch
mollusk
hotel
ridley
siege
adventist
[unused838]
##gence
militia
countess
leased
spares
joao
narratives
sanitary
crossed
replenishment
shetland
mcconnell
depicting
booms
guitarists
atmospheric
flowing
northward
##wr
albanians
wounding
blending
verifi
multi-attribute
partners
readable
financed
enamel
predicted
prey
petit
atlas
[unused924]
iridiums
brahms
graf
##bla
gale
##une
##mbe
wharf
##rum
1966
descendants
accommodating
36.7
##iz
nears
avila
larry
56
mosquito
originating
senior
fulton
intricate
##oki
missouri
sunset
vijay
gottingen
poet
##pies
interfering
aiding
articulated
##oys
##bb
unicode
scars
desk
##vel
documentaries
curtiss
bubba
##gga
inverted
memorabilia
audio
##lle
staircase
confederates
##tub
##ntine
mba
agreement
arch
hampered
##hit
toulon
largely
minas
miniature
bombers
myers
serbian
kilometer
cockpit
feeling
foster
hutchinson
brain
funk
dependency
navajo
##ride
chalmers
##utive
souls
[unused834]
rector
westfield
corsica
141
##gau
shorter
fame
outwards
timer
murder
dispatched
##cape
vegetarian
formulating
jarvis
##ius
geek
tennis
garion
rehearsal
enveloping
pointer
prophecy
supplementary
##yte
providers
palmgren
lasts
1703
##heim
rotate
##nsky
appealed
##brook
##aru
autogenerated
di
consequently
##notes
258
napoleonic
prayed
portraying
lt
rudd
maintainer
product
tag
freiburg
niccolo
arrested
seriously
seek
##bered
zimbabwe
ashes
websites
orso
cuban
279
ammonia
protector
songwriters
commentaries
overly
gillespie
stumble
vibroacoustics
requisite
d.
##vic
tentative
fault
every
##inal
amounted
afl
##ezer
[unused647]
physician
dignity
founding
performance-oriented
sipped
##mmy
integration
chants
govt
1760
higher
tower
orthodoxy
envy
relativity
papal
percival
collections
honduras
greenish
dismissal
##gos
##balance
acquired
[unused648]
extensive
grange
electronically
cowboy
napoli
##phic
fuzzy
##lid
trafford
##quent
##maker
grabbing
diner
##dled
vocational
munster
##rak
access
328
negatively
horizons
observed
pageant
challenged
privileges
journalist
emile
##roving
pedestal
marble
microscopic
punk
wheelchair
veins
tasted
default
chapman
sw
##beat
sta
capitalist
furnace
francesco
achieve
expired
twice
fore
travellers
##iss
snout
##ifice
##rc
famine
##wan
##rative
##sted
taiwan
trainee
willoughby
polling
yucatan
skipper
merely
##hett
##gno
showtime
##ffed
##2
[unused812]
excellent
daytona
sped
assigns
provisional
##lus
##kley
dick
##sian
##fort
##fting
acquaintances
pleas
##for
crimes
[unused984]
folder
##ged
ad2
cheerfully
frame
funnel
reasoning
property
##ieri
fragment
deformation
##brates
meet
enable
johnson
acquaintance
##roup
##los
minute
##ovic
thorn
dots
randy
##uid
bobbed
imp
johansson
##vary
retreating
##vity
echoes
ck
crude
##umb
speaking
damascus
gleam
honoring
##ructured
molecular
plantation
piercing
burton
seventh
crowned
helene
insert
secs
winced
denmark
kind
fourth
fredrik
qin
particularly
platoon
manga
injunction
usage
imprisonment
projections
thirds
##ges
sorrow
cooling
melting
preserves
93
##unced
indicated
mole
consortium
[unused158]
picnic
peanuts
newer
google
expects
gottfried
syrian
[unused179]
balthazar
dora
blitz
saskatoon
meng
celebrated
potter
minnie
##nst
signature
eritrea
##stein
focused
dune
helped
impoverished
accurately
lyricist
deorbit
brodie
vicar
275
construct
wellesley
##end
usc
[unused636]
gliding
collaborating
kin
emerged
geoffrey
identification
problematic
durban
lime
venerable
brake
employing
cipher
[unused460]
translate
vaulted
slammed
volunteers
interrupting
abrupt
##eson
debuted
qa
##nca
carleton
[unused680]
problems
they
rave
##uto
tortured
stored
##ig
sculpture
pond
apostles
[unused963]
1951
match
inhuman
walked
legendary
preflight
sas
surf
karen
##yad
secretary
##uy
[unused362]
apologetic
##bbed
supervision
provincial
decorations
downstream
kenji
cough
entirety
serving
##sburg
bravo
gas
ranked
garnered
levin
nhl
faust
dickinson
hummed
##ties
castillo
clutches
amplitude
reigned
application
signs
log
credited
##rya
##dler
off-the-shelf
[unused474]
dade
matures
soviets
differences
subconscious
induce
blasted
chinatown
judicial
brand
blasts
##ans
gunner
dwarf
potassium
useless
weighting
##dock
mori
##xi
bin
1960s
bombed
##gus
tons
[unused240]
tongue
name
russia
galician
patio
erect
vaccines
##deck
plant
##mata
greeks
morrison
swamp
referencing
sheen
pamphlets
##uchi
alvarez
##like
gunnery
[unused959]
interests
accumulate
blues
packers
separated
##65
chose
cheshire
paralympic
##ti
gerry
deliverable
1711
##just
##cott
albans
##chaft
hip
southport
exiles
argent
sally
clash
aristocratic
[unused446]
pradesh
thanked
##hee
requalifica
shots
laughing
validation
pba
verlag
lenin
prince
knowing
##kker
podcast
301
stock
accomplishing
purchased
wolf
biblical
hawkins
pharmacy
forwards
grain
freestyle
incorporation
graduating
undefeated
pseudonym
geometry
[unused794]
helm
provoke
boon
interrupted
claus
##mer
##mona
bullets
toronto
sesame
425
##ssar
nightmare
aiaa
mozart
bournemouth
meal
asset
officer
##oses
##burgh
##oris
##rts
tensions
##tile
wouldn
reelected
fairly
##bbing
pantry
vhf
gse
cuff
constant
ranges
soundtrack
dragon
cheers
##dicate
alignments
matrices
emotional
supporter
refreshing
zip
chow
meritorious
##itz
##ppel
##cta
mala
lit
##iah
1880
##urs
##dav
7123.1.
cooperation
admits
palestinians
kincaid
##vating
populace
newton
consideration
630
##aneous
##rix
country
strokes
axial
utilities
##kers
questioned
bragg
sarcastic
bentley
epa
gloucestershire
hobart
embryo
[unused64]
strain
royalties
[unused568]
jennings
enzo
370
edith
retains
whichever
twist
sleep
##verance
bandages
explained
bc
nwa
##sea
zu
kosovo
##erty
mitigates
include
some
envelope
superhuman
##tment
javanese
##sts
herb
[unused953]
appeal
resources
discontinued
was
##orous
vaults
rockets
assured
kei
recruited
alt
shelton
batch
2019
painful
##zine
##ock
##ica
iron
calendar
brian
[unused444]
sh
[unused13]
transatlantic
romanized
skirmish
scholar
##minated
weekdays
productivity
finance
caracas
dock
survivors
interred
unprotected
westbound
loire
contains
##bble
##riding
wolverine
graffiti
##mpton
fever
inspirational
dubious
studying
allmusic
assemble
diana
districts
syriac
cremated
mingled
[unused246]
norwood
scanner
20th
198
photon
bernhard
cognitive
dash
republic
evergreen
walnut
propose
farms
quartet
narrator
dedication
refuse
macbeth
striking
nbl
requirements.
plata
##dling
nelson
1881
fees
##ople
education
spokane
wharton
homecoming
paperwork
##kato
sleeps
nautical
protocol
reflection
marvelous
akira
neighbourhoods
terrorists
##tness
upward
teaching
recruit
reorganization
knew
ja
tingling
2009
grew
##chang
oldham
sweetheart
tangent
##rise
##rus
[unused646]
biased
cops
theirs
hazardous
##cy
commenting
kc
sensor
vicky
kurdish
morphological
recognise
resistant
cn
##rase
centenary
replication
hospitality
clauses
remnants
gora
gradient
clasp
proliferated
eireann
##asco
sunderland
##jord
suzy
secure
teammates
[unused630]
buckley
keeping
stars
pair
manufacturers
chronology
carving
sweat
pal
voted
crossroads
accepted
hemispheres
zhejiang
trenches
waterloo
spencer
geopolitical
leave
carthage
abnormalities
##rdan
santiago
##door
advent
cartoon
beliefs
201
endeavor
madagascar
palace
bringing
tutor
uphold
impose
empire
treason
knox
booths
##1
sober
##scia
willem
shouting
confessed
1653
po
##hard
sherlock
landslide
kamal
armed
inform
hideout
cola
##loading
redemption
lured
##kas
deng
giuseppe
clans
specify
skirt
attache
##eland
olive
satisfy
considered
officials
doe
bogota
over
coyote
trees
obsolescence
solicited
227
[unused872]
[unused701]
compliance
grimaced
1708
farmers
entrepreneurs
zombie
reassessed
prague
comprehensively
chip
escorting
displacements
[unused4]
untrained
ordnance
undone
commensurate
comparison
generous
##lius
soo
##uge
merritt
maps
bolivia
semitic
seam
rains
luggage
douglas
##cope
scripture
insight
..
snorted
ada
##dar
architectural
dug
bee
silhouette
2015
orthogonal
incose
[unused385]
controlled
##gp
causality
migrated
influenced
##lion
ronnie
rai
mongolia
probably
sara
##ub
coloured
recess
##hos
arthritis
tea
cascade
daf
underneath
painfully
underworld
##ailed
guaranteed
disapproval
##puri
forge
##truct
type
xyz
##nal
dowry
##wana
##tera
##ious
directed
##ses
##hering
##vao
locked
disasters
colombo
crating
describe
ballast
[unused595]
##gree
1819
myself
effbd
[unused530]
alongside
collin
whether
meteoroids
raju
banning
kerr
lbs
pursed
palmer
mont
zee
shrugged
inequality
sandwiches
research
charging
necessitates
typhoon
kris
##oit
##sten
trapping
basics
1805
bradford
cleopatra
canning
##aghan
superstar
swear
calmed
bulbs
twofold
springsteen
sentiments
louisville
retraction
charges
quintet
##ch
##pped
ratings
midtown
pulls
##riders
##evich
[unused174]
cognizant
twitter
discourse
voices
##fight
brat
councils
##bner
lizzie
##sboro
tenderness
[unused533]
tragedy
##ato
##ps
specialising
##llan
##tree
1873
hints
labels
##nge
berries
##udy
jefferson
flattened
##cker
##akh
xiii
##abi
widows
resulted
##eral
rotated
63
believe
burning
eliminating
##zz
rhythm
genocide
magnum
pipe
planned
playing
wreath
blocks
yells
pensions
cost-effectiveness
##riated
tulsa
scene
wrist
fascination
canucks
wren
triumphant
dismounted
champions
forthcoming
competitors
##folding
pushed
un
isabelle
eccentric
doorway
operates
hungary
discussion
stirring
essentially
centuries
##horse
elsa
greece
requiem
ryan
noisy
##zin
adviser
persisted
hal
elijah
l.
undead
##ings
honesty
fence
collateral
swallowed
blue
cock
multiplied
achievements
##hall
bulb
kent
denton
cohen
located
sir
bat
bleed
##lone
intellectuals
barnes
##55
fourteen
weakly
##ama
one-time
valencia
studio
robbie
julien
estrada
steam
tightened
hound
ment
cab
tape
chicken
mara
strike
imperfect
julie
coasts
entered
prr
##uation
[unused824]
chargers
parma
operationally
pen
quickly
gunnar
utmost
founders
[unused470]
fountains
6.8
reserves
ruins
eventual
1625
moisture
reconnaissance
walks
torsion
##fm
dudley
thousand
2000
provence
backstage
vegetables
##85
artists
mice
thorne
illustrate
bwf
phase
allison
cantonese
smith
yourself
friend
scouting
microsoft
goran
##dra
moor
wholly
facades
d.4.4.4
icd
doping
##rgen
[unused206]
##uli
waterfront
##tford
freaks
area
##kari
preoccupied
broom
composers
british
dignitaries
science
casa
grammy
##nat
refueling
portage
comments
magnus
documentary
bio
aston
##hunter
[unused739]
186
filters
producer
libre
caucus
480
cedric
subject
1798
rhythmic
congregational
cosmos
sewer
cid
slovak
cannes
##bled
##jit
activated
talbot
palms
shrewsbury
##fusion
opponents
agree
magnitude
ballard
inaccurate
unions
chet
##ification
horned
signaling
ritual
##fat
angie
1744
devise
stint
therefore
[unused697]
##uled
johanna
helpless
postage
reached
lund
eruptions
masonic
tobacco
profile
infectious
exposure
suburbs
manufactured
hammer
mohammad
##la
coinage
almeida
tanner
isa
correspondence
##atable
heroism
inhibit
proceeding
abused
##ation
##iary
merry
permitted
pbs
##oy
twins
fontana
##now
435
benefactor
dove
hill
jamal
##mined
##rug
holden
hydrogen
euclidean
commonplace
gather
cancel
karate
rosa
yearning
revolutionary
au
##year
ak
gertrude
quiet
flickered
##pol
##kt
revoked
##lass
statistical
brentford
chan
petrol
muffled
covert
##away
abandon
rescued
battles
retaliation
humboldt
##ddled
cells
sweaty
reservoirs
valentine
decorative
[unused433]
actionable
mindanao
protruding
animation
vacant
trustees
forming
season
piloted
alarmed
next
usaf
passive
businessmen
gregor
splashed
olson
smiled
milestone
dubbed
rates
boulevard
101
hua
[unused605]
buren
earn
edna
feral
##wire
moravian
uncomfortable
marshall
sloane
fernandez
qaeda
da
##rson
[unused922]
blossom
mdr
feeding
[unused107]
even
carnegie
rabbits
noteworthy
justification
draw
localities
traction
1638
volumes
patrols
1875
guitars
tunisia
whoa
##wley
sword
##standing
juicy
iso
[unused952]
recycled
korea
southbound
clutched
##ifer
snooker
##cum
##trix
feather
northeast
metis
dei
racer
developmental
genealogy
reassessment
judd
##wehr
heats
##kson
philadelphia
valentin
coffee
##cles
titled
thesis
odisha
##tagram
replanning
readying
rival
camouflage
contractor
ultimate
##guchi
riots
1732
grin
bipolar
5.84
unchanged
##lian
park
oil
abigail
##tage
article
mound
smarter
many
logging
exploits
annotated
##ser
swiped
produced
republican
luc
shrugs
medallist
##yme
aisles
rebuilding
fuels
palatinate
aperture
builder
sigismund
southern
##ential
omnibus
lightweight
harlow
charted
swiss
vp
+
##ivar
talk
wi
hook
carried
pacing
tents
sequencing
turnaround
his
scope
maximilian
sleeping
onboard
achievement
indeed
##imating
approached
treaties
ns
gallagher
assessing
251
[unused681]
##ject
problem
murals
childhood
humble
commandant
tianjin
sacrament
1975
guest
emptiness
altogether
[unused564]
taft
immigrant
##oat
oblast
clinton
##oic
##film
legislator
redefined
youngest
radiation
cleansing
failing
fulfilled
chocolate
tentatively
absolute
mandolin
enrolled
sprawling
##g
peeling
freud
days
informally
##ovich
yeah
horrified
ffbd
regiments
karachi
##olate
silky
totally
conan
lawyer
accessories
3.3
nprs
crypt
evaluated
rhyme
politically
settings
users
amin
##dic
demonstrating
drew
expressions
##ieu
peacock
mildred
subsers
mammoth
##fera
ridden
unlawful
myriad
sheila
bladder
mania
greek
deployed
dizzy
algiers
203
[unused531]
pole
guardians
##inia
daring
frankie
storage
##ying
sacrifices
##gum
macon
##vered
leon
primate
bldc
carly
studios
nationwide
chatter
1b
relief
##rmi
tracing
##lino
plain
watkins
release
vibrated
studied
inventor
glowing
forts
169
pr
chalk
covering
fifteen
132
##jian
canceled
##mple
hairs
##iva
##dun
hissed
rohan
##imeter
customizing
occult
forgotten
clermont
fernando
shut
belonged
mukherjee
honey
epic
juliana
##llation
##tland
surrendered
frankish
terrorist
neoclassical
##bard
vicki
[unused359]
pueblo
embracing
friendly
atom
bloomington
##icle
abduction
methodical
product-oriented
lease
pregnancy
##xley
##dina
##sk
favor
congo
bombardier
maroon
##yin
[unused668]
153
guggenheim
jerome
age
marlon
paris
nato
progression
-
essay
rey
passion
exceptional
neil
scaled
solidarity
unanticipated
detroit
walton
outer
1695
conical
arena
freshman
hazard
favourable
communion
lang
##zbek
agnes
##nor
gravity
##bine
whites
differing
##lova
owe
partnerships
##flict
freaking
airlift
cy
chairman
top-level
struggle
pop
itself
bribes
donation
##claim
oddly
detected
indy
##ories
iphones
napkin
turf
##tled
availability
seems
##jou
geographical
##shan
obsolete
occur
computed
taxi
[unused925]
##iform
##mate
river
environments
fully
aching
##ine
plunged
entertainer
transfer
tri
lan
##nne
##tated
expediting
##zko
westminster
##ctuated
[unused862]
enjoy
signals
bolted
##worthy
dina
riley
sweeney
elaborated
realises
##drum
recovery
##isches
maestro
[unused213]
principals
alfonso
band
concludes
bree
8
italia
##eur
[unused579]
[unused988]
theological
routines
traced
##kou
foundation
hussein
literary
##ze
##lake
transition
spontaneous
satin
apple
[unused60]
##block
sable
us
##gut
spectra
##felt
marius
[unused586]
height
wilderness
235
tage
storyline
flat
##tase
##nds
leveled
racing
rfc
revolving
hysterical
abuse
amara
wounds
prostate
identified
mansfield
shropshire
conditions
##uman
##real
puzzles
griffith
##rations
opposes
220
fear
cursing
##eran
blushed
joe
barley
##etano
vides
gi
variances
advertising
overdo
allegro
georgina
oricon
##eld
gin
philips
independently
unallocated
looted
gina
5
later
serum
hcd
1679
torques
howie
publisher
achieves
raises
beatty
##oon
madness
##phon
1865
narrated
defined
camping
revision
portfolio
quo
hatfield
visas
ian
excel
#
hercules
multiple
speaks
upgrade
fifteenth
argentina
chronicle
bianca
doctoral
clevis
dangerously
theatres
pear
approaches
##uh
bal
##dent
jurisdiction
7.8
amongst
enabled
##rogen
##gee
stoppers
sammy
##arable
diagonal
semi
yer
mortar
intensely
retrograde
chili
##ays
sawmill
trembling
##tower
1713
mine
[unused154]
comets
patrick
##sic
analyzing
wrapping
superficial
light
fiercely
towing
bear
##onis
concurrence
tackles
pubs
##i
fulfill
sighted
phenomena
halo
##atics
angle
silicon
borrow
hardcover
##ibe
##tries
bequeathed
##usly
##anger
##tory
prohibited
brett
miles
narrower
hugely
tainty
pictures
panting
##ich
bounding
##gren
mundane
##estra
pedro
rubber
stronger
viewers
nineteenth
##bourne
husky
accent
though
armies
chases
##ana
ethiopian
[unused88]
##phile
rewards
aquatics
tma
##ibility
lanes
##sos
cyclic
legal
symmetric
explicit
[unused782]
secluded
curiosity
figs
##34
welding
selecting
existent
interact
updates
210
##uated
perth
declan
tailored
experimented
mid
[unused350]
aide
contender
ncaa
chavez
trace
[unused325]
[unused391]
therapeutic
##ische
yep
concept
commissions
inline
stunt
bowen
forgot
etc
ibm
holders
##iad
nightingale
speakers
ir
systematically
monte
extends
abel
##ian
##flower
75
transitional
##ori
tequila
bunk
mini
pedal
auditioned
##rton
##say
##poo
##cous
jules
subdivisions
ksc
buyers
seton
notice
##roll
film
##pis
theologians
devastated
bach
brassboard
reacts
uneconomical
cain
regression
##bling
plains
1692
[unused906]
elicit
crested
reservation
resolving
##tin
cyril
blindly
brainstorming
sterling
jenkins
525
variables
faculties
patrice
robbins
accordingly
magdalena
gabe
[unused469]
mach
tempting
echoing
constraints
brutality
disgust
dale
malawi
penetrate
dismissing
cai
figured
labelled
##weed
amazement
accounting
106
mitsubishi
<
americana
full-scale
budge
impressed
copying
quarries
handkerchief
284
circular
climax
alto
emphasis
creed
km
header
relic
[unused602]
ju
405
engineering
associates
ardent
vertebrae
1934
rodney
stream
jennifer
arrows
stretch
conducting
##ric
2003
robbers
bumps
tyre
[unused856]
plateau
smoothly
empirical
chang
chamberlain
reportedly
pouring
invasions
luigi
auckland
cabbage
##hl
lifespan
lacy
jelly
4.2.1
theorist
sixteen
stuttgart
huffington
thayer
##week
sultanate
psyche
vedic
hendrix
ramirez
##ares
regret
bust
##most
knuckles
waves
phone
contraction
app
##stered
crab
kidney
lobby
breathless
knitting
shu
downed
fated
composer
distracted
botswana
[unused25]
pose
scattering
##rah
[unused208]
kara
desperation
indefinitely
filling
jerseys
[unused609]
defeated
##arding
diaz
eroded
praise
facilitate
menu
compact
alerted
magna
##erton
cartel
maitland
##land
k.
##mour
[unused901]
[unused870]
##onus
astro
cents
[unused741]
blasting
choice
representative
##ense
islamic
meta
bald
tortricidae
grab
foreword
someday
ity
##ehan
tits
regulatory
arab
##alo
contrasted
quantitatively
prototyping
tender
taking
unintended
microminiaturization
crs
decides
primal
nik
ting
1992
##iest
ka
ironclad
[unused421]
dental
343
listed
revived
rank
4.4
violation
##har
datasets
##stad
npr7123.1
condemned
66
111
blades
confirm
##sul
warp
glanced
liza
320
gathered
doubles
pottery
beaches
ocean
##fold
accompaniment
##nostic
conductor
premium
less
standalone
ash
update
cmll
##aga
disused
solomon
rib
pursued
sellers
##helm
##hem
incapable
##bham
rough
pickup
gail
limit
lions
[unused78]
stabilized
injuring
continual
infamous
astronomy
floors
tossing
hash
vida
nicola
desirable
newtown
blouse
##zek
yale
convince
1983
campaign
address
thermal
undergraduate
##rsten
anomaly
highlights
leslie
medium
##belle
heron
##tson
scarlett
policemen
chesterfield
parody
##town
monitoring
hearst
##rber
mcr
world
takeoff
mitochondrial
toulouse
paintings
california
paring
[unused664]
easier
ep
tailed
repeal
confines
richly
pausing
aliens
horribly
##vant
irritation
forced
roadway
macedonian
termed
darlington
##keeping
squared
sited
gambia
concepcion
theft
%
resting
dinosaur
custom
mill
##lla
memories
nonrecurring
triad
##dden
whore
##it
preserved
amplifiers
mai
##ilo
chilly
couples
[unused420]
ul
bound
##avs
##worm
roommate
##nger
[unused306]
repeated
pumped
murders
##mmer
hedge
wah
suspended
martinez
relaunched
belle
muddy
spanish
temporarily
##eh
services
ton
syracuse
iran
##qua
ribbons
refined
herself
trans
acceleration
said
borg
##arte
[unused16]
belfast
##fe
##boy
bowl
##pac
60576
nokia
bile
[unused929]
stew
logistics
factory
##ksha
outpost
nload
unison
electrification
##grapher
##osition
tasmania
fairness
role
##ghi
##orescence
manchu
perspectives
[unused374]
wonderful
cope
betrayal
##ma
##ele
deepened
robbed
##orne
songwriter
becoming
[unused746]
jessie
henry
roar
cleaner
apology
##zow
649
bancroft
##xt
1741
chairperson
requirement/expectation
queens
stellar
##psis
vocalists
launching
nothing
intense
##sume
gaston
subtly
flower
ultimately
[unused43]
tractor
##veda
impacted
540
tracking
##oge
pedestrian
determine
allo
mounted
ap
discovered
brakes
briefly
pascal
marquette
mock-up
##:
retro
tonight
self
isbn
naked
inclusive
ever
##opa
cups
complimented
disadvantages
obesity
dolls
cans
##57
taboo
bobby
ivhm
patriotic
dhabi
highly
ended
reveals
woodland
gel
abundance
williams
target
growling
delta
syndicate
jogging
##one
arid
perfection
kneeling
concepts
insect
ox
proclaimed
international/electronic
cactus
lure
passport
startup
directs
ghz
fiction
forms
misinterpretation
##u
precisely
43
##die
rubble
hurley
peaking
function
[unused8]
left
sheridan
linear
operas
taxa
oceans
hart
princes
ture
continuation
polly
ya
angels
jewish
sexy
##body
anonymous
strands
filtered
work
different
production
dirty
##pd
themes
joined
medications
grains
bliss
##dial
munich
budgets
##aceous
pre
##lbert
adventurous
goo
womb
andrew
interdependencies
posthumous
spans
dag
steel
lines
fare
identity
god
gloucester
stripe
grandpa
wondering
802
borne
##pathic
calling
here
changing
##iji
##hedral
edit
mechanically
ad2provides
katy
laptop
orderly
price
wants
avengers
lesley
kawasaki
aaa
therapy
dark
minds
crying
system
##ban
[unused124]
##ary
drift
northumberland
embark
afterlife
##lain
guillermo
periodicals
particle
smallpox
rapid
subsequent
##ennial
branch
layton
prerequisite
manpower
affiliate
joanna
paths
tract
opt
metres
entity
east
klan
dai
posters
jamie
allocate
pattern
corporations
a.
##le
hsip
visually
[unused632]
designations
glamour
lennox
arya
giants
omitted
##mini
peterborough
puts
benton
purge
[unused233]
raids
currency
##tech
bangalore
hume
##pres
rubbing
48
hilltop
rags
thou
[unused284]
handling
andy
inertia
northbound
remark
##54
stature
me
sensual
##31
circling
1926
soldiers
##bbling
laundry
allows
trams
muse
louisiana
##aire
##ered
offence
0100
radios
sme
locomotive
hacker
let
##ge
ernst
clutch
pearls
##quisite
scheduling
core
lithuania
##scu
lordship
narration
am
experience
adults
hurriedly
trapped
targeted
treasures
prosecutor
refrain
disbanded
##rained
##mian
pembroke
harmonies
caravan
zaragoza
kurdistan
retreated
indicates
[unused378]
armament
comedy
kimberly
knesset
substituted
settles
bureaucracy
outmoded
##lmer
##lco
[unused20]
495
hanging
2.7
itv
##ists
thickness
deco
craftsmen
salim
[unused849]
arrays
roughly
compo
posture
##oration
kannada
archie
disrupted
only
somebody
selling
reptiles
lilly
sufi
##fire
cha
proposal
claude
sarah
immutable
improvement
flipping
bro
trieste
jail
##itis
hinder
operators
lever
vanessa
[unused369]
motion
##irus
##zard
stations
barbed
fine
laborers
diva
##gai
102
because
paisley
averages
farrell
zhao
manipulating
elbow
patterson
reprinted
fibre
##nitz
[unused589]
slopes
darkly
qing
##ostal
bargain
elle
towers
dagger
buenos
washington
supports
longitudinal
clover
office
##nik
##sque
arrived
items
manifold
##urity
branched
northwards
label
speeding
##ccus
flesh
ngc
accountability
honorary
stade
welles
colton
reggie
antwerp
ensembles
trains
www
legions
presley
foreigners
relate
spurs
hickory
comparative
minions
susannah
##typic
ocio
elastically
hiv
xv
shuffle
paternal
adulthood
nissan
life-cycle
tickets
##rro
##oue
conor
mapped
telecast
nicky
chaos
passports
accordance
chancellor
##rina
[unused121]
oldest
allegheny
celtic
structural
mallory
infections
javelin
stairwell
barnard
diplomats
serb
stark
##rily
airplay
0.001
munoz
attorneys
elsewhere
user
voodoo
##mbre
##taro
##rt
cities
tems
mule
fbi
inventive
breakthrough
conversion
outreach
rallied
newbury
elevation
[unused722]
vet
640
navigator
indictment
teaming
[unused489]
hospitals
cosmic
perpetrators
peppers
##ath
csi
kayla
ranged
fire
[unused464]
scares
counsel
pounded
crack
small
##inae
##llins
##eke
##lift
##nov
multi
peasants
darkness
tran
##reen
biking
consulting
adapting
fortune
discover
bug
##eno
spins
##rting
phased
chung
defects
circuits
##rse
picture
##pose
hen
independence
pew
adobe
hemisphere
##hua
5.4
eucalyptus
breadboards
arguably
##amo
exploitation
##psy
autobiographical
##rco
idds
##51
cautiously
##phus
porch
eleventh
saddle
1980
46
stanley
telephone
[unused226]
clapton
unitary
turbo
miniseries
grupo
adaptation
lesions
charley
roche
wiltshire
want
##ib
hoover
eighty
suppressed
martini
1672
basha
written
assign
urge
##dus
visa
aboard
nothin
slap
##agne
marvin
becomes
insists
playback
edged
recognizable
nutritional
earliest
skulls
emails
petroleum
detectives
potato
infinitely
muster
horrible
michaels
leland
##gies
##kovich
predictions
infinite
slash
supplemental
mall
mohamed
tight
mysterious
obey
differentiating
[unused723]
##erly
smoked
naturalist
designee
upbeat
renegade
lifted
shorts
demonstrably
murdered
##ended
##brush
expose
inauguration
##cp
##eres
albums
fruitful
##ece
train
senators
cancers
clasped
yielding
argues
implying
roofed
1772
elvis
pumps
educated
tennessee
concentration
liturgical
##vna
watering
slightest
teenagers
memphis
solid
exams
checkpoint
##lase
creates
bedside
guiding
sweet
airfield
poison
modular
##physical
##tized
malone
snoop
##rka
ified
c
semantic
airport
benign
##ldon
[...]
